[PAD]
[UNK]
[START]
[END]
.
1
2
3
4
a
b
c
d
e
f
g
h
i
j
k
l
m
n
o
p
q
r
s
t
u
v
w
x
y
z
¡
£
©
°
±
×
æ
ø
đ
ı
ł
ə
ʿ
α
γ
ε
ζ
η
ι
κ
λ
μ
ο
ρ
σ
τ
ا
ة
ت
ح
د
ر
س
ك
ل
م
و
ي
ः
अ
आ
इ
ई
ऋ
ए
औ
क
ख
ग
घ
च
ज
ञ
ट
ठ
ण
त
थ
द
न
प
ब
भ
म
य
र
ल
व
श
ष
स
ह
ा
ि
ी
ो
१
५
७
८
চ
দ
ন
ব
ভ
র
ষ
স
া
‘
“
”
•
⁄
€
←
→
∶
⌘
☺
☻
♫
➣
the
of
and
to
in
is
##s
that
for
it
this
on
you
was
as
are
with
be
not
by
or
he
from
his
have
but
an
at
which
##ing
they
has
if
can
##ed
will
its
one
your
all
their
we
there
##d
were
when
##a
so
had
about
##ly
more
other
also
who
india
##i
no
them
these
what
people
do
##e
time
only
been
may
some
##n
out
##t
new
##y
like
##r
##er
up
after
any
two
should
could
would
into
than
then
government
her
because
him
world
many
first
rrb
lrb
years
now
get
indian
over
very
most
even
my
use
our
state
##l
made
us
how
such
##es
##al
work
##h
make
she
where
life
##m
see
##o
name
before
under
said
list
used
help
file
those
between
way
just
want
information
during
called
take
country
being
must
war
national
me
set
right
did
through
against
place
##on
##k
court
here
year
day
know
go
does
part
long
number
well
need
while
system
much
same
cannot
states
power
language
back
three
great
own
man
error
different
##p
every
good
##an
change
found
both
per
show
open
each
another
##ers
muslim
##ion
whether
important
muslims
hindi
last
down
##u
political
without
please
house
however
##b
##in
end
islam
##ic
law
network
##c
##ment
think
given
available
##ation
failed
come
children
find
free
public
case
going
give
again
film
things
local
too
left
##able
##le
support
social
why
home
high
history
##g
policy
british
president
service
little
main
came
united
##ar
##ity
whole
days
child
position
text
group
type
old
still
say
##or
according
form
got
water
minister
israel
become
later
party
always
order
example
american
four
put
dont
never
known
second
start
##ra
look
since
small
person
next
started
create
times
##ness
view
book
data
god
school
city
human
congress
##ry
key
##ting
##ted
th
##rs
south
river
due
##ya
few
general
able
page
religion
around
already
done
using
##nt
among
services
problem
family
members
terrorism
##ism
something
large
east
international
##ist
air
parliament
really
##ive
took
##na
side
area
means
islamic
period
within
council
health
video
best
less
away
hindu
middle
##te
##ble
went
window
women
changes
##ia
date
files
##us
body
though
control
words
development
address
complete
##en
possible
today
process
might
action
##ge
fact
email
act
read
##re
problems
##ate
became
##ies
##man
constitution
folder
west
##ous
##is
##um
message
user
age
default
full
taken
##tion
million
men
provided
keep
better
image
others
following
special
point
countries
device
english
common
word
item
current
often
question
religious
try
security
cent
sure
once
working
value
university
##ta
select
far
district
##f
young
food
further
run
contact
says
present
##ce
account
original
himself
king
money
##ha
level
off
office
five
having
search
server
##id
##ter
matter
related
making
##ne
union
##ri
enable
central
singh
police
##ur
size
##ch
story
thing
yet
love
member
play
true
##st
##x
months
add
display
selected
itself
##th
##am
##ful
education
live
together
foreign
password
move
freedom
western
thats
thought
##la
until
death
century
save
article
ask
check
north
##less
application
delhi
##ling
getting
including
##ts
either
face
based
line
temple
##ma
along
culture
early
literature
rights
tell
actually
mind
mr
##z
connection
hand
written
##ure
etc
rule
role
seen
url
##est
future
movement
population
version
industry
report
settings
##v
call
course
mumbai
computer
top
media
google
business
care
themselves
im
reason
head
prime
##se
big
enough
pakistan
parts
thus
percent
society
modern
books
america
##as
doing
##ka
community
land
several
economic
##ent
receive
##it
major
news
space
told
past
result
therefore
kind
almost
cricket
akbar
front
mode
believe
least
living
lot
##ve
nothing
taking
asked
effect
chief
military
pipes
plan
understand
comes
choose
committee
phone
##ary
access
boy
comment
cases
enter
needs
various
certain
class
sabha
laughter
third
heart
writing
real
gave
region
source
woman
presented
color
close
##ng
above
considered
advice
anything
note
team
upon
feel
ago
towards
palestinian
clear
let
code
delete
rate
sanskrit
##da
##pur
brought
bill
soon
##ti
author
near
force
instead
project
provide
week
##at
##ty
till
authority
earth
##sh
perhaps
research
stop
created
groups
am
cause
##ck
mobile
sent
places
department
update
write
light
flag
latest
usually
company
pay
six
areas
nature
began
music
outside
details
forces
ram
##ial
##nce
software
copy
game
required
##j
cant
supreme
total
army
##ious
languages
personal
violence
built
##et
subject
continue
command
daniel
ways
##ian
makes
single
talk
behind
idea
short
##hi
##ated
send
web
rs
justice
unable
capital
necessary
setting
half
test
famous
leaders
technology
civil
played
ever
reading
field
press
##ors
europe
production
province
##de
issue
wrong
##il
israeli
iraq
lost
audio
science
pradesh
earlier
invalid
white
wrote
father
leave
china
sometimes
##ating
click
##w
terms
##ize
turn
courts
march
##ant
someone
##ns
claim
longer
rather
hands
mother
simple
category
growth
quality
session
blood
son
status
allowed
##led
##va
looking
goes
##el
##ging
allow
remove
held
internet
passed
##ized
directory
born
decided
nt
particular
published
##ning
entire
peace
##ists
bring
wanted
everything
knowledge
administration
established
questions
global
islamist
leader
##age
difficult
whose
decision
hard
include
experience
named
running
return
##land
publication
##line
##red
generally
inside
rules
red
environment
survey
ancient
screen
task
likely
##ji
center
certificate
especially
topics
art
windows
##and
although
building
powers
##ut
conflict
##han
goods
sense
works
accurate
income
bad
ground
hours
path
quite
developed
england
types
users
wall
terrorist
##ping
sound
trying
##li
##ration
mean
gandhi
hindus
program
##ct
output
##name
##men
##up
low
mailing
recent
character
friends
interest
below
former
theres
bank
format
similar
link
accept
increase
sea
tried
capacity
progress
answer
drugs
learn
match
##tic
bengal
energy
poor
series
arab
eyes
popular
study
average
integral
meeting
month
online
subscribe
job
politics
##ir
private
assembly
comments
conditions
deal
benefit
changed
messages
centre
iran
nor
evidence
ganga
activities
section
institute
runs
disease
forwarded
youre
cultural
european
font
trade
village
ball
financial
forward
site
higher
majority
active
matters
##ll
##ss
beginning
greater
normal
attack
location
situation
transport
##ally
supported
basic
election
lives
parents
style
democracy
desktop
disabled
ideas
names
natural
independence
takes
kept
unknown
road
alone
black
keyboard
lord
website
nation
industrial
options
##ned
finally
id
london
title
##ring
applause
background
consider
houses
notes
demand
market
range
birth
october
park
theyre
##ence
##ped
agreement
individual
nepal
evolution
governments
lead
numbers
strong
##kar
basis
installed
saw
coming
configuration
felt
##der
menu
reposted
cost
import
importance
limited
follow
legal
ministers
ones
shown
added
relations
else
room
sign
##ni
increased
khan
memory
##tor
africa
april
january
stage
method
post
commission
icon
lok
speech
success
issues
night
step
build
##ish
across
chrome
poet
stories
##ving
nearly
##the
car
gives
sex
gets
krishna
automatically
base
giving
official
oil
particularly
yes
items
##ded
connect
july
practice
sun
expected
followed
record
subhas
green
install
responsible
rajasthan
received
doesnt
islamists
nations
previous
share
##ities
organization
serious
training
##ical
##ised
jewish
round
lower
##ries
fear
forms
opinion
option
street
desert
meet
september
volume
chandra
contains
hold
scheme
ali
remember
thinking
wife
maximum
operation
reach
tab
except
needed
points
deep
views
difference
visit
june
review
amount
won
##cing
hope
standard
temples
weeks
animals
democratic
industries
tonnes
cell
meaning
content
empire
shows
##ged
##les
died
minimum
probably
rest
schools
wants
beautiful
fort
roy
##ms
continued
paid
purpose
revolution
##ise
bush
easy
spread
extension
met
seven
structure
browser
button
happen
islands
results
##time
saudi
##ons
beyond
fire
term
##ance
##ions
kingdom
laws
batsman
housing
influence
powerful
property
turned
##ved
asia
entry
students
##ds
board
described
independent
values
cities
paper
parties
remote
solar
##ram
drive
object
offer
treatment
##nd
becomes
happened
saying
specific
telephone
voice
##war
included
obama
appear
apply
college
model
remain
shall
trial
truth
involved
leading
afghanistan
criminal
november
species
##ding
##un
carry
letter
pattern
download
load
##ad
attention
authorities
edit
elections
pollution
event
plants
reached
##har
##ization
credit
led
persons
response
star
starting
##ay
##tive
external
learning
steel
eastern
efforts
fast
input
valid
##way
charge
disk
direct
egypt
fight
kashmir
protection
workers
accepted
exist
northern
profile
recently
wide
##ny
currently
specified
struggle
tax
##son
##ties
didnt
##ke
applications
opportunity
picture
width
##ot
looked
print
##mi
cells
mail
produced
##ine
box
citizens
enabled
nuclear
track
washington
document
killed
reasons
thank
##end
conference
knew
rise
respect
sort
##ai
##ton
additional
directly
palestinians
stand
americans
bombay
lines
tv
approach
heard
player
column
connected
minutes
declared
indians
material
moon
nehru
noise
provides
successful
tagore
##pt
germany
manager
radical
##ments
calls
carried
faith
insects
links
management
seems
whom
##ner
##om
##q
##to
activity
effects
gone
happy
calcutta
direction
friend
prince
square
association
economy
existing
pressure
york
december
height
muhammad
officers
offline
script
speak
##cy
##ro
events
final
steps
##tes
circumstances
moment
pages
table
caused
extra
hour
leadership
poems
everyone
statement
daily
empty
executive
george
physical
risk
##ul
formed
price
shah
##ol
bit
costs
notice
february
intelligence
loss
officer
wish
festival
indeed
planning
policies
stone
attacks
description
disable
elements
judge
release
airport
governorate
growing
mark
situated
weight
##ible
##ze
complex
hear
hospital
##bar
##ile
##ue
iranian
jews
august
cold
island
machine
uttar
benefits
ensure
productname
republic
scale
award
concerned
organisation
eight
fall
immediately
larger
studies
join
leaflet
panel
requires
terrorists
arabs
expect
radio
travel
useful
condition
hamas
reality
##ls
##sed
protect
##di
##pa
apart
safe
selection
speed
temperature
door
largest
plugin
resources
speaker
st
thousands
##ga
agree
construction
library
mahal
male
quran
safety
##ps
##ral
buy
completed
cut
proxy
decide
exists
turkey
worlds
##ations
railway
ready
##rate
card
feeling
parliamentary
procedure
theme
##ves
calendar
doctor
movie
poetry
regular
saved
spirit
systems
##ana
##ered
creating
focus
raised
elected
responsibility
traditional
##bly
changing
enemy
female
happens
remains
returned
seek
sides
##dy
##ee
##ks
actions
port
worked
export
fit
agriculture
israels
plant
proper
##pe
anyone
dead
director
figure
generation
otherwise
removed
host
latter
peoples
stay
##ran
associated
campaign
ii
john
morning
pass
sector
spent
##he
appeal
bar
crime
drug
late
none
tool
youtube
fundamental
placed
religions
standards
##light
gas
institutions
medical
whatever
develop
feed
officials
playing
shape
wait
##ba
##ction
##sion
britain
highest
moved
##ver
believed
chance
existence
goal
koran
lakh
length
programme
southern
impact
ministry
race
affected
completely
gods
includes
interests
jail
japan
opposition
produce
unless
##sing
billion
damage
effort
internal
legs
mainly
target
addition
battle
lake
regions
simply
staff
tamil
failure
fully
images
kids
reports
secretary
station
correct
thousand
##cent
##ened
##hip
##ie
##os
effective
french
mouse
separate
##ak
##rated
brother
centuries
couldnt
electricity
letters
opened
string
ten
unit
mass
photo
draw
element
indias
unique
warning
##uring
disc
dream
login
milk
teacher
threat
legislative
notification
request
throughout
announced
appointed
families
features
games
strength
terror
understanding
##rating
accused
al
baby
closed
ie
joined
judges
videos
arabic
chinese
easily
looks
offered
primary
resolution
constitutional
custom
map
soul
weapons
yourself
climate
cover
decisions
divided
don
explain
lies
missing
reference
scientific
win
##go
allows
arms
despite
package
specify
die
heavy
matches
partition
raj
vote
##ans
begin
complaint
interesting
neither
opening
standing
##my
##vi
avoid
challenge
companies
equal
exercise
learned
methods
seem
tradition
exchange
feet
instance
mahabharata
mount
permission
prevent
products
##em
facilities
france
motion
moving
supply
walls
##isation
##ite
##king
acts
christian
fine
huge
significant
##tra
holy
rajya
sri
talking
##bs
##ulated
discussion
label
printer
##day
##ide
##im
##ulate
break
hit
jerusalem
quickly
toward
victory
border
mentioned
##nts
agency
channel
debate
manner
newspaper
normally
##ese
##one
animal
client
dance
maybe
sources
##ray
duty
preferences
principles
switch
welcome
actor
characters
context
era
increasing
lets
##tation
adopted
fixed
pictures
theory
uk
watch
writer
##co
##izing
##za
compensation
corporation
fund
log
philosophy
reduce
covered
examples
foundation
moral
rich
seemed
turkish
analysis
basava
clearly
rivers
##cks
##sa
##tan
cabinet
dark
forest
function
identity
plans
tree
##ator
##bad
grow
sites
taj
television
##ore
##out
articles
fighting
kumar
punjab
installation
waiting
##tors
besides
helped
kinds
lived
meant
upper
##bility
##rd
##ulation
affect
initial
manage
soviet
tenant
whats
aid
coal
critical
potential
##ah
##ium
appears
crisis
garden
governor
judicial
militant
partner
sheep
town
##ual
agra
enjoy
keeping
lose
unity
##me
##ology
##per
attempt
differences
greatest
keys
levels
listen
mostly
##like
commercial
dynasty
israelis
reader
decades
defence
dr
located
mission
remained
tasks
##ain
##ress
armed
expressed
extent
ill
nokia
permit
proved
vedic
##ets
##nath
becoming
clean
eye
fields
frame
ordinary
##ari
##ified
##tha
bin
budget
causes
contain
design
individuals
successfully
uses
##sm
county
gaza
mahatma
re
temporary
##her
##ud
##zed
claims
fair
jihad
knows
married
reported
units
visible
##ency
accounts
advanced
arabia
creation
husband
outer
prepared
properly
relationship
##ft
biggest
bottom
buildings
domestic
interface
japanese
players
regime
seeing
traffic
tube
##si
broken
de
degree
impossible
improve
presence
sentence
vedas
##ins
##med
achieve
brain
count
joint
limit
museum
##ably
##ung
chairman
contrast
crore
crores
mosque
palace
poverty
reduced
songs
surface
##ability
chromium
laid
poem
variety
vision
##res
appropriate
dialog
diseases
editor
entered
guide
lack
royal
stars
##que
nhs
released
ruling
storage
student
teeth
##lation
aim
argument
atmosphere
decade
employment
fell
iraqi
planet
regional
stopped
worship
##based
##cal
##ses
##use
authentication
smaller
stream
translation
warming
asian
blue
compared
illegal
issued
ive
measures
##ham
##ose
ad
devices
equipment
essential
expression
factors
millions
ocean
prices
seconds
wind
worth
##lo
annual
babies
contents
eg
exactly
marriage
master
revolutionary
##ber
##nal
charges
collection
imagine
km
mountain
mountains
ramayana
##ep
##ify
doubt
finance
german
labour
myself
occurred
sky
summer
ubuntu
weather
banks
concept
consumer
index
multiple
older
restore
suddenly
valley
displayed
hidden
hide
materials
oh
premchand
shared
song
upgrade
via
vishnu
worse
##wan
appeared
david
distance
filter
girl
inner
raise
showed
solution
territory
##by
##ric
affairs
agricultural
answers
bc
camera
cancer
career
danger
sleep
##aging
##ard
badruddin
funds
paul
##iya
developing
division
facts
hearing
helping
sync
##cted
##ip
##ki
architecture
dangerous
eat
iron
jobs
kill
killing
mughal
sending
starts
understood
##ca
##ler
##ury
agreed
highly
historical
leaving
lock
offers
organizations
rama
saint
scientists
shortcut
bharat
caste
defense
emergency
figures
gold
horse
introduced
operations
penis
secure
touch
weve
##dra
##ification
##ings
##ome
appointment
australia
beauty
choice
contacts
jurisdiction
merely
permissions
span
trust
urdu
##ey
##vation
confidence
leaves
offence
parent
sexual
stated
unicode
##bi
##cs
##old
behaviour
bhagat
bjp
gandhiji
hundred
nine
regard
rural
##ap
##ier
domain
films
mouth
netaji
pillars
positive
priority
vimana
##ara
applied
bose
bringing
classes
folders
photos
root
stock
wage
##ag
##com
finds
interested
swami
updates
youth
##garh
##hood
##late
##our
##ular
deleted
engineering
filled
grew
markets
repair
terminal
##do
##ess
buddha
demands
proposal
quit
require
secret
signs
speaking
spiritual
store
straight
tools
vast
##ld
##wa
ability
allowance
bills
gain
hair
institution
maharashtra
persian
registered
signed
subjects
arrested
belief
configure
edge
federal
forum
mental
professor
showing
syria
##ala
##ger
##ley
##zing
calling
colour
ipv
league
proposed
reply
teach
##ath
##ory
##rn
connections
duties
eggs
entirely
explained
gnome
nobody
pain
principle
whereas
##ok
chapter
concern
daughter
delay
investment
preview
vajpayee
##ute
actual
couple
documents
dollars
fellow
fish
treated
universal
##be
##bed
##ice
##une
##ured
amendment
communication
destruction
ends
establishment
floor
forced
orders
performance
restart
ruled
soldiers
startup
thoughts
trash
tribunal
##ney
bengali
ended
girls
healthy
kabir
landlord
silence
flow
##down
##mal
##ong
##ys
database
depends
extremely
ganges
medium
origin
phase
railways
##ff
##no
##shi
##ures
archive
carbon
distribution
instrument
marked
patient
permanent
prophet
recommended
remaining
row
slow
usage
##ward
cd
escape
evening
layout
moderate
replace
troops
universe
evil
extended
followers
hardly
homes
kings
stands
usual
verses
violent
widget
zoom
##aries
##ening
##gate
##gh
##hu
##od
##row
##tered
branch
burning
christians
convert
gujarat
hall
prison
scholars
sessions
##ja
breast
hot
providing
sitting
spend
villages
wicket
wont
##lies
aged
happening
mere
minute
murder
novel
raw
refused
saddam
serve
sets
skin
taliban
##das
##ited
ahead
functions
genes
heat
ll
organisations
sat
self
senior
suicide
visiting
##ched
##ow
##rt
##set
balance
certainly
connecting
veda
whenever
##sis
backup
double
hamachi
ideal
observed
projects
suggested
urban
##cate
##hy
##oo
##rat
aware
bodies
packages
referred
regarding
relevant
teachers
trees
##ang
##ens
achieved
alternative
bhavan
ca
dictionary
encourage
establish
finding
founded
holding
saving
soil
streets
vertical
weak
william
youve
##atic
##city
##ising
##ust
cancel
enemies
faces
fill
forget
noted
strange
taught
uri
virtual
##book
##ering
express
header
immigration
introduction
machinery
maintain
provisions
reasonable
records
strategy
youll
##fully
##mer
battery
brief
communities
entitled
flight
golden
mahadevi
prominent
technical
##ces
##ining
##teen
civilization
detailed
feature
hes
inspired
mandapa
objects
piece
representative
schemes
spoke
stones
suitable
tenants
trading
zone
##hara
##ire
administrative
arrived
beings
boot
chosen
emperor
factor
largely
protocol
provinces
soft
tells
##ced
##ree
attacked
eventually
imperialism
launch
legislature
managed
measure
relief
resource
spot
walking
##ates
##cies
##cp
##rain
##sha
##side
##ura
bear
begins
coalition
committees
consists
cotton
false
fourth
guru
ruler
##ators
##gar
##hana
##ten
addresses
carrying
charged
committed
defeat
handle
launched
masters
proceedings
sons
stood
tag
twice
walk
##ash
##had
##link
abu
estimated
helps
improved
legislation
lists
pension
strike
sugar
wear
##ily
##room
adding
asking
block
bus
containing
controlled
corner
educational
facing
journey
lots
occur
owner
politicians
prasad
prove
somebody
twenty
vital
##fe
##ik
##ool
##ound
##pal
##ris
##ship
appearance
cursor
defined
discuss
formation
fuel
hundreds
lal
liberal
opposite
palestine
tea
##ery
##hs
##its
##stan
##vara
agencies
approval
audience
belong
desire
devi
follows
license
obvious
permanently
provision
putting
rose
statistics
suggests
topic
##cle
##lip
##rit
alchemist
anyway
continues
cross
exit
feelings
opportunities
rain
represent
rulers
summary
totally
winter
##ade
##ics
##sive
##vity
allah
attitude
behavior
cars
communist
dry
farmers
pixels
properties
russia
shrine
sought
##istic
##ker
##ndra
##oring
##table
##ub
##yas
advantage
african
airports
assessment
bat
blind
competition
drawn
driver
identify
ignored
lay
literary
plugins
symptoms
visited
waste
##af
##aj
##io
##mark
##nding
##net
##pose
##sal
abdul
administrator
bachchan
brings
cooperation
everybody
guidance
jute
organised
patterns
purposes
served
sudden
suffering
suggest
transfer
##box
##dh
##ges
babu
bridge
carefully
citizen
dealing
deaths
expansion
extensions
insurance
lebanon
operating
rename
sacred
tons
##lin
##tle
aspect
attached
brahma
cache
definition
instructions
ourselves
perform
rates
secular
signature
sir
##den
##ids
##iting
##lay
##ography
##rous
##uation
arrest
birds
camel
childhood
deputy
grounds
intended
islamism
listening
marathi
movements
performed
prior
yellow
##hari
##ological
alliance
bowler
conduct
drawing
extreme
firm
fresh
grant
mahabharat
opposed
seat
seats
shift
skills
worry
##fication
##ites
##logy
##nes
##sts
##wing
bomb
brothers
celebrated
consequences
countrys
criticism
directed
environmental
equally
explains
falls
goals
intellectual
mention
pretty
victims
wikipedia
##jan
##ron
##ters
bookmarks
co
constructed
converted
designed
devotion
drop
hill
insect
judiciary
models
poets
ratio
represents
teaching
willing
##ali
##ching
##dation
##ert
##op
##tal
adults
amitabh
bed
bihar
degrees
destroy
diabetes
egyptian
html
imports
james
joy
lanka
leads
linked
networks
outlook
passing
presidential
telling
##cious
##lam
##van
automatic
gradually
imported
listed
payment
principal
season
sell
sick
thereby
wealth
##ime
##lan
##yan
accident
bold
canada
equality
flat
flowers
horizontal
identified
indicate
minds
perfect
positions
relation
statements
teams
trouble
wars
wings
##ern
##general
##ini
##ming
##uous
akbars
capable
consideration
cup
diplomacy
duration
jain
lie
marble
rare
regularly
roof
sharia
sorry
##lled
##pad
batting
busy
channels
complaints
customs
hussein
isnt
quiet
shop
sounds
specially
stuff
suffer
targets
writers
##ama
##ig
##nation
##this
##ture
ages
arabisraeli
assistance
bug
church
crown
depend
determined
drag
fifth
finished
mohammed
pair
pure
representatives
shri
strategic
territories
turns
victim
##cation
##ere
##ncing
afraid
artist
attribute
computers
conclusion
dam
happiness
increasingly
loading
locked
possibility
practices
requirements
##ult
absolute
arrangements
attach
behalf
believes
deeply
dreams
engine
instruments
memo
recorded
slowly
voluntary
##des
##hand
##key
##orn
##osis
##pped
##rum
##sia
##wal
aspects
authors
basically
branches
dedicated
enables
enforcement
factory
guarantee
liberation
masses
objective
permits
phones
quick
reaction
rising
shell
shot
sufficient
treaty
ultimate
watching
worldwide
##ase
##gation
##ight
##right
admitted
allahabad
ayodhya
bound
checking
developments
errors
haplogroup
historic
shiva
sit
socialist
unfortunately
ve
welfare
worst
##iled
##ncy
##rent
conspiracy
europeans
hence
insert
obtained
pollutants
replaced
roads
severe
##ches
##ibility
##lla
##nia
##off
##sist
##tory
##well
adult
copies
das
easier
ideology
influenced
professional
regulations
texts
tomb
truly
##tar
answered
bureau
councils
fax
gate
hinduism
immediate
knowing
opinions
plays
remarkable
signal
tour
wireless
##ek
##rates
##ulating
##ull
abroad
acting
advance
caught
chemical
concerns
digital
doctors
expenses
gulf
rejected
supposed
token
warm
wonder
writings
##eer
##fs
##ined
##rant
##rap
##uri
##ways
chair
combination
considerable
corruption
districts
genetic
harm
heres
percentage
printing
processes
relative
reset
sacrifice
sample
shut
spite
subhash
subhashbabu
substantial
##ab
app
catch
dispute
granted
heaven
heritage
patients
reform
responsibilities
spoken
##fied
##mon
##nda
##type
blank
complain
composed
constant
consumers
correctly
destroyed
engaged
grown
jsa
mills
obviously
peak
revenue
rock
schema
seller
similarly
split
tests
wishes
##ants
##ika
##nic
##rising
##uit
##und
adequate
anywhere
colors
distinguished
epic
madras
platform
pleasure
product
purchase
responses
seeking
sight
specifically
spending
stages
##ach
##ature
##dev
##ians
##las
##nagar
##over
##ple
##race
##rge
arrow
browse
centres
communal
departments
essentially
exports
hardware
monitor
negative
passwords
prize
promote
requested
resistance
secondary
sharing
surprise
surrounded
tata
##ail
##au
##back
##ders
##ivity
##port
##rable
##ulous
##which
##ying
combined
depending
describe
expenditure
flower
humans
improvement
loved
offering
pakistani
pick
pieces
proceed
refugees
scene
suffered
train
turning
wise
##ale
##encies
##if
##lle
##pi
arguments
assured
bought
broad
cave
contribution
drink
entrance
herself
himalaya
hind
illness
miles
seriously
socialism
symbol
##ada
##bal
##date
##hen
ban
captured
consumption
diet
difficulties
diplomatic
fail
ignore
implications
infrastructure
modified
ms
newspapers
pointed
residential
resolve
silent
supporting
vary
vehicle
##all
##cked
##gal
##lf
##ump
##unt
aging
bigger
copyright
destination
fun
gases
mecca
module
pin
ran
reject
repeated
slightly
solid
stored
succeed
translated
##lt
##rew
##rity
##sent
##sk
club
contract
detected
employees
faced
fly
ice
leg
limits
oldest
organized
pitch
proud
queen
sold
##ages
##cist
##ean
##jay
##ked
##kh
##rmal
##wn
citizenship
components
configured
controls
cultures
determine
gift
keeps
ki
massive
mirror
okay
refer
##azi
##hal
##iate
##ina
##liance
##tent
coast
confirm
courage
denied
facility
hitler
holds
native
personality
playback
prosecution
rice
solve
##bha
##ended
##etic
##ically
##itude
##list
##of
##og
##vated
##work
alive
begun
binding
borders
difficulty
emerged
experiment
forests
guilty
hanuman
lesson
longterm
minor
mixed
planned
possibly
respond
ring
yearold
##cts
##esh
##ren
##tis
##uted
audacity
brotherhood
compassion
component
conversation
copying
cycle
educated
faster
implementation
jawaharlal
magazine
minority
narrow
nationalism
obamas
presidency
rai
rarely
sequence
sister
somewhere
structures
toolbar
typing
unlike
username
wild
##ake
##ami
##ani
##iling
##ility
##lash
##oid
##round
##tions
acid
arts
cavetemple
elsewhere
grand
greek
improvements
laden
mistakes
nice
obtain
occurs
organs
paris
rent
russian
sensitive
sita
siva
tehran
yamuna
##ams
##ending
##vision
absence
bird
buying
camp
cards
commissioner
dioxide
entries
everywhere
fix
gupta
heads
ka
nadu
occasion
reforms
repeat
robert
route
satisfied
stations
##cc
##place
##raj
##rence
##tical
acted
activate
approximately
attempts
burden
conducted
contemporary
contrary
dna
electric
encouraged
encrypted
exclusion
formal
generations
italy
kerala
kolkata
lady
michael
net
ni
ok
programs
ramalinga
removing
sniffing
threats
ultimately
websites
##als
##ement
##israel
##nan
##ret
##rier
##ther
##uta
##we
claimed
closer
declaration
discovered
employer
familiar
feeding
gibraltar
helpful
increases
metal
nickname
papers
pointer
prepare
prompt
score
sheikh
studied
succeeded
surdas
worker
##ats
##che
##jit
##lling
##rey
##take
##ug
akp
allies
arjun
childs
customer
doors
emission
expand
holiday
instant
mp
non
optional
paying
plain
plus
relating
sand
satellite
##are
##ination
##stone
##ural
##wards
academy
acquired
awarded
categories
cellular
charles
commands
didn
dvd
effectively
greenhouse
organ
passage
prefer
preparing
recommendations
repairs
sections
sees
solvents
statutory
sum
tel
widely
wood
writes
##dha
##ied
##ished
##py
##ras
##san
##shed
##tter
##wood
americas
bowling
broke
buttons
cattle
consciousness
devanagari
icons
imprisonment
indira
italian
meetings
movies
offices
pane
presidents
racial
raising
realised
scope
smoke
smoking
specimens
tourism
tourist
trader
##cence
##ho
##long
##most
##ula
absolutely
auto
awards
brahman
classical
constitute
decline
encryption
ending
erdogan
expert
focused
forth
gardens
iii
kabul
martin
numerous
passphrase
practical
significance
tiny
##dal
##ea
##ject
##lined
##lock
##low
##ria
##rick
##rip
##wat
bangladesh
boys
cair
circle
crops
detail
discovery
divine
exception
favour
infection
interpretation
investigation
loaded
mistake
outcome
represented
schedule
servers
shadow
spell
tenancy
tracks
tribal
##ati
##dies
##head
##mas
##night
##oke
##related
##ua
##uck
##view
##word
aircraft
amounts
aside
axis
constituted
contributions
dog
drama
experimental
explanation
gp
initially
painting
plane
reaching
rss
setup
spain
tendulkar
thinks
towns
treasure
unexpected
winning
witness
##rative
##uk
##umb
##usion
abdullah
bahadur
captain
charter
corners
drinking
dropped
elephant
flash
guidelines
hatred
hills
invited
meanwhile
meter
participation
pm
politician
protected
sc
scientist
tabs
tend
##cco
##going
##kara
##lands
##nk
##pressed
acceptance
apparently
assumed
belongs
cavetemples
conversion
crop
dependent
dollar
filename
http
incident
journal
magic
microsoft
nagar
ordered
os
prayer
progressive
qualities
residents
responded
sports
stick
transportation
wheat
##ared
##ford
##gs
##lities
##pted
##tt
##umps
##voked
alpha
breaking
creative
discover
extraordinary
federation
finger
fought
funding
hostname
humanity
intercourse
medicine
mood
nd
rear
roman
##active
##cus
##din
##lect
##ption
##rified
##tary
##tics
azad
characteristic
clothes
considering
convinced
cool
deleting
delivered
delivery
edited
employed
flying
greatly
loan
maintained
meat
nath
necessarily
overs
primarily
provider
punishment
replied
serial
settled
shops
smile
updated
vagina
voting
##ace
##eb
##int
##ith
##ky
##mination
##used
agenda
approved
businesses
contained
critics
diwali
goddess
hostile
jobseekers
karnataka
maintenance
manufacture
naturally
proof
punjabi
readers
realize
recognised
recognition
selling
seventh
ship
shopping
sweet
thanks
todays
traditions
##ald
##art
##aya
##bia
##hra
##level
##nment
##rian
##year
cast
closely
colleagues
collect
conflicts
consequence
core
defeated
discussed
egg
employers
encoding
experiments
experts
fairly
gdm
guest
inevitable
integrated
involves
lahore
oi
patel
politically
portion
processing
publishing
raja
resulted
somewhat
syrian
trained
vehicles
wisdom
wonderful
##but
##cial
##ita
##nate
##shing
##tly
andhra
anger
anybody
assam
burn
clock
declined
enormous
fascism
frequently
imagination
injured
injury
likewise
mohammad
nationalist
overall
prompted
recognize
reducing
specialist
submitted
tennis
##culation
##ght
##ill
##posing
##ster
alcohol
angry
attempted
attracted
bay
complicated
confined
destiny
directions
dust
dynamic
embassy
expanded
foods
foot
generated
informed
innocent
marketing
modify
monmouth
motor
moves
payments
pressed
removal
richard
sculptures
un
verma
votes
wifi
worried
##ager
##cratic
##gan
##lated
##ole
##pati
affects
allowing
andaman
angle
applies
assistant
belonging
canadian
clipboard
englishman
entering
jobcentre
lesser
magistrate
mans
puran
rd
relatively
revealed
settlement
supports
thomas
translate
trusted
twelve
##bing
##cular
##dic
##iation
##lance
##pers
##sure
##zi
advocate
apps
band
bbc
breed
constellation
customers
darkness
disability
discharge
estimate
gene
geographical
ideological
indigenous
mixture
municipal
nonmuslims
ombudsman
precious
prose
risks
socalled
talks
##board
##born
##els
##ents
##fa
##fall
##lish
##matic
##ners
##oon
##otic
##rva
##ssed
##tta
##tude
##val
##win
arm
artificial
attachment
bacchan
barack
blair
brown
bsb
checked
consent
enterprise
functioning
irans
literacy
madhya
nicobar
notifications
realise
representation
respectively
thread
witnesses
##abi
##air
##ame
##cating
##charya
##eal
##gn
##ila
##inated
##kal
##lished
##oes
##oned
##rom
##stic
##style
##una
abbas
bookmark
chamber
cloth
concluded
confirmed
constituent
continent
efficient
favor
friendly
glass
guard
imposed
jammu
kalpana
lessons
nearby
prisoners
query
rapidly
realized
smart
wing
##act
##ane
##chandra
##eds
##ficial
##gam
##ix
##lied
##lu
##lying
##mission
##nse
##phere
##pire
##uity
##unch
##vest
arafat
arbitration
browsing
california
commonly
electrical
excellent
iraqis
kalam
layer
manufacturing
programmes
regarded
relatives
republican
resulting
subsequent
tajmahal
thereafter
thrown
tomorrow
unsupported
wake
##arian
##dar
##ena
##hed
##house
##ona
##pect
##sation
##ugal
##vas
ahmed
assigned
breasts
bright
buddhist
candidate
closing
compare
completion
describes
dignity
diversity
draft
earliest
extend
fashion
harmful
hopes
indonesia
indra
liberty
logic
merchant
namely
pace
presents
printed
receiving
registration
requests
resident
retired
robot
saints
saraswati
speeches
testing
tough
tries
typical
usa
westerners
zero
##ctions
##fy
##has
##iary
##izes
##lum
##pping
##using
##ws
airlines
alqaeda
blocked
brahmin
careful
controversy
depth
discipline
distributed
eligible
emotional
fathers
festivals
grass
info
jaipur
manual
pandavas
pandit
partners
playlist
recognized
reverse
sachin
shares
sixth
threatened
tied
toggle
treat
turks
##ack
##cking
##clude
##inate
##india
##lon
##mar
##mic
##ounds
##ously
##press
##ried
##sar
##uru
##zen
acceptable
awareness
carlo
cloud
collected
comparison
comprehensive
consult
counterterrorism
dealt
declare
discussions
disputes
divide
editing
engage
enjoyed
fruits
guess
honor
incorrect
locations
musharraf
mythology
netanyahu
noticed
operate
parameters
paste
pause
perspective
portuguese
puts
register
remembered
searching
template
vegetables
workspace
##ancy
##asant
##class
##del
##ils
##ima
##ior
##orm
##position
##rk
##rush
agreements
aims
alleged
attend
banned
beliefs
burma
capture
castes
console
democrats
distinction
dutch
elephants
expensive
falling
fat
isbn
manchester
monte
osama
paragraph
peaceful
periods
prevents
promised
rapid
seeds
shoulder
spring
submit
tilak
tip
verse
visual
##berg
##cated
##du
##gui
##ica
##mb
##ressed
adds
amazing
bollywood
booklet
collections
convicted
derived
distinct
eating
exposed
folk
harassment
lying
mexico
modules
neck
organisms
ozone
preferred
previously
profit
purana
push
replies
sake
scored
stayed
symbolic
transform
translatorcredits
valuable
watched
##bling
##fi
##fire
##iness
##istan
##ition
##ives
##ora
##osing
##point
##rator
##rid
##teenth
##ution
##ware
canal
causing
chawla
coffee
examination
feedback
grade
headquarters
hotel
indus
initiative
installer
jordan
khomeini
knees
protest
recognise
recording
recovery
restrictions
studying
suggestions
synchronization
tags
traders
wearing
weekly
##bit
##dhi
##eous
##gram
##krishna
##lal
##reed
##rry
##tate
##ukh
##was
aggressive
attendance
availability
biological
blow
bombings
cookies
covers
dome
downloading
evident
fallen
fed
geography
guys
himalayas
honour
incidents
interview
islams
legacy
observe
parallel
phenomenon
plenty
sculpture
stress
technique
undo
universities
varied
vpn
wickets
##abad
##avan
##babu
##ems
##hat
##minating
##nted
##rest
##rth
##shan
##shire
##sible
##title
##tte
##ui
##vis
##vy
afford
agent
agents
argued
bharatpur
bombing
chain
columns
continuing
continuous
danish
daughters
demanded
firefox
generate
gita
implemented
liked
losing
mosques
originally
pillow
pop
posting
quantity
reminder
separated
separately
shrines
sms
sonia
sport
threw
tone
tribes
vice
vitamin
younger
##aking
##asing
##ata
##cast
##ctor
##last
##let
##note
##nsive
##ream
afterwards
applet
batsmen
depression
dominant
ears
efficiency
existed
frequency
fruit
gained
himalayan
hunger
incomplete
lamp
loans
ma
machines
moreover
occupied
premises
procedures
sale
san
sanctum
spreading
symbols
throw
titled
updating
withdrawal
##aged
##ient
##lessness
##ood
##raft
##rai
##sphere
aids
amongst
arrive
campus
candidates
crash
crystal
determines
distant
ethnic
finish
grants
hearts
himachal
integrity
jodhpur
miss
mothers
munshi
mutual
popup
praise
reputation
sen
sikhara
sunni
survive
udaipur
wales
yoga
##ained
##ell
##eries
##ew
##fill
##ilt
##itha
##nya
##ond
##ots
##ount
##owed
##rations
##rim
##ror
##ru
##text
##tract
##water
##yard
addressed
album
applying
arabian
assault
chand
claiming
commander
crowd
dakota
devoted
disagreement
dismissed
dutt
emphasis
episode
eternal
experienced
females
indicates
iso
los
lucknow
margin
meal
passengers
permitted
picked
precisely
publish
random
retreat
shaped
sharma
sinha
stronger
volumes
warfare
##ading
##atha
##cher
##file
##graphic
##hibition
##ick
##ida
##iles
##kas
##ko
##muslim
##nsion
##pat
##path
##pura
##rc
##run
##vival
##wed
academic
artists
baghdad
beat
clinton
convention
cry
dangers
decorated
displays
emissions
evolved
fingers
initiated
ke
lakes
lakhs
onto
partly
pride
propaganda
publicly
quarter
routine
sad
stadium
suit
sympathy
talked
terrible
theories
unlock
urgent
##ae
##arn
##ative
##chi
##coming
##eo
##field
##ingly
##jee
##log
##lous
##oot
ceremony
currency
dress
fonts
horses
household
inappropriate
involving
joshi
launcher
lawyer
marine
meters
narayan
passion
promise
puranas
returning
rows
sales
shoes
snow
sorrow
thirty
widespread
xml
##aded
##ality
##alt
##archy
##endra
##gle
##ken
##lacing
##mp
##ou
##pression
##sess
##thi
adopt
bacteria
blame
choosing
clouds
codes
concerning
contributed
crossing
enquiry
evict
flows
gallery
guy
hate
incognito
installing
intention
labels
locally
males
marks
matching
moscow
negotiations
offset
profound
reserved
resolutions
screenshot
sharp
techniques
tiger
wider
yesterday
##asser
##bert
##bles
##card
##gers
##iff
##ional
##llah
##lls
##making
##marks
##only
##pin
##rive
##try
##ups
accompanied
argue
avoided
certificates
christianity
conservative
coordinate
decrease
disaster
eliminate
emerge
everyday
excess
favorite
feels
fighters
immigrants
judgement
keyring
mine
nursing
orientation
pack
promoting
prospects
radiation
reduction
rough
savings
scheduled
sentences
signing
sovereignty
trip
underground
unusual
versions
waters
##ank
##arily
##ars
##ball
##cut
##fer
##ias
##idence
##ifies
##ipe
##lessly
##lity
##mate
##more
##pan
##rged
##rical
##rich
##space
##struction
##uddin
##unction
##vati
actively
array
bow
bread
carved
caves
chemicals
childcare
collective
concessions
detect
differ
driving
fbi
filed
framework
grave
hospitals
implement
improving
indicated
innings
jump
korea
leaflets
messenger
newly
pact
padma
personally
plate
possession
preserve
programming
psychological
recommend
refuse
reign
render
researchers
separation
significantly
singer
singing
spelling
stable
tail
ted
tower
unlikely
vaccine
##acity
##cles
##dir
##door
##era
##irs
##ively
##min
##osed
##ota
##oti
##sb
##tories
##ugh
##uraan
##uting
##wes
accordance
admit
alignment
boundary
charity
commitment
compact
composition
compromise
converts
electoral
habits
insisted
joining
junk
kuran
logical
loose
occupation
offences
overcome
parse
pending
privileges
reload
roots
samples
savarkar
serving
shoulders
stanford
struck
surrounding
ties
timeout
unfair
weakness
yeah
##cific
##gated
##graphy
##ift
##ifying
##lus
##nds
##ob
##rants
##span
##urse
##ush
actors
associations
attributes
breeding
childrens
chromosomes
circles
circular
crucial
economics
equivalent
experiences
fate
filling
friendship
hero
holidays
hoover
inserted
irrigation
justified
manufacturers
masjid
odd
overwrite
pen
polls
pregnant
qaeda
qualification
references
scriptures
singapore
societies
strongly
subsequently
taxes
tired
tooth
transferred
turkeys
viewed
wooden
##amed
##arat
##az
##bis
##ci
##cracy
##hop
##hp
##ius
##logical
##ml
##phone
##ppy
##raits
##ule
##uts
##var
achievement
advised
alphabet
apparent
apple
attitudes
backward
breath
brightness
carries
challenges
chances
chennai
chicago
clicking
collapse
conservatives
constantly
drivers
estimates
fees
fifteen
fox
grid
harmony
hindustani
implies
la
launching
medicines
monsoon
nevertheless
occasionally
offensive
overseas
pallava
prospect
publications
pulled
raid
recommendation
reporting
rituals
salt
sardar
scholar
sentenced
shes
sovereign
supporters
tactics
threshold
verify
warned
wasnt
wave
wherever
yemen
yield
##ains
##bour
##eg
##fort
##hibited
##idal
##ike
##inlaw
##iously
##iring
##lm
##mes
##mical
##minate
##ols
##osity
##pense
##pet
##rb
##ribute
##riel
##rus
##scale
##sy
##udi
##ues
##unting
##vail
##vani
accordingly
advise
assad
bowl
cheap
civilian
civilisation
conscious
contempt
cooperative
debug
deliver
documentation
earnings
factories
forever
freely
fullscreen
galaxy
grammar
gtk
headers
hostility
infected
intelligent
intense
linga
magistrates
max
mohan
monitoring
musical
participate
penal
plains
produces
proposals
publicity
quoted
rooms
ships
specifies
stability
stroke
themes
uniform
van
varanasi
vimanas
vulnerable
##bold
##ception
##eers
##ees
##fect
##front
##gin
##gon
##inal
##islamic
##mat
##mation
##nial
##ntly
##odi
##ops
##page
##pair
##sions
##unes
##vations
##vey
##xide
##ye
accidents
alarm
amar
arranged
associate
boat
breathing
brilliant
carers
catering
cows
deemed
defend
discrimination
diverse
drew
durga
elder
envelope
extensive
forgotten
frequent
imperial
insulin
kid
lights
literally
maintaining
manually
mechanism
mix
nobel
nominated
olympics
openly
peter
potentially
prevention
producing
provincial
respected
scripts
sim
situations
skip
spots
swaraj
teachings
tragedy
whos
zionism
##aar
##ately
##ials
##itation
##kha
##mble
##oli
##posed
##ression
##rust
##tting
##ude
##ulse
##upa
##urable
asks
cinema
daemon
desired
duplicate
execute
faulty
fits
impression
investigate
kilograms
legitimate
libya
mainstream
mantra
mtdna
paintings
proportion
rupees
sciences
sectors
shelter
shifted
soldier
structural
supplied
tropical
unprecedented
weapon
wellknown
##aic
##aran
##bel
##cha
##gen
##gi
##gue
##hold
##ipur
##ison
##jali
##lic
##loom
##rial
##script
##ser
##tu
##ued
##vel
abandoned
afghan
anonymous
arrival
assume
backend
bluetooth
boundaries
brave
condemned
confirmation
confused
dialogue
disappeared
doctrine
exceptions
fifty
fluoride
habit
hai
hyderabad
kapoor
karachi
learnt
offender
organic
pool
popularity
predict
prescribed
pull
rajput
restricted
returns
satisfaction
solutions
spanish
surprised
temporarily
textile
transformation
virtually
##ac
##av
##avi
##bilities
##code
##dition
##dle
##eration
##ira
##macy
##nder
##ndranath
##ndu
##ogue
##onal
##ony
##oop
##riving
##sign
##taking
##tam
##urance
##vent
aggression
andor
arrangement
bamboo
bangalore
broadly
buffer
chat
colonial
communications
considerably
counts
dear
deeper
delta
elaborate
emerging
ensuring
excessive
excited
gates
handling
hezbollah
hiv
jan
javascript
joseph
lice
membership
missile
mubarak
panels
patience
perfectly
petition
pilgrimage
poll
presentation
rabindranath
ranks
rao
ray
refugee
residence
seized
sketch
sole
sunday
superior
talent
tall
upanishads
wives
yadav
##american
##fold
##hile
##iented
##igh
##kra
##lc
##lor
##mia
##nis
##oom
##quiring
##rowing
##sessed
##standing
##stry
##ultan
##utra
##vuk
##wari
##weight
accepting
albiruni
angeles
arise
arjuna
attended
chose
columbia
consisting
cow
cyprus
deeds
deny
examine
execution
extremism
founder
gap
globe
governors
grace
graph
hockey
hurt
laboratory
logged
mahmoud
mek
miracle
operator
orthodox
ought
pairs
passes
plot
ramadan
ramayan
recover
reserve
resize
santiniketan
scenario
sorts
staying
stomach
substances
suspect
ups
viz
##aba
##acket
##anas
##aval
##ciency
##cient
##ez
##ficiency
##hindi
##ister
##iterate
##iv
##lving
##mity
##nel
##ox
##rand
##rg
##rics
##vable
##veda
##verse
##via
##zy
affection
ally
ambassador
applicable
centers
clothing
coloured
communism
contribute
encouraging
estate
fewer
forming
gathered
giant
glory
handled
hazrat
headed
hindustan
href
idol
impose
ip
iranians
isolated
lands
lips
moments
ninth
pa
privilege
ravana
resume
rid
simultaneously
solvent
stereo
walked
webpage
##agar
##aling
##bus
##cord
##dication
##even
##for
##hur
##ib
##iment
##ises
##lew
##md
##ocation
##oming
##oses
##ph
##ponsored
##raced
##reaching
##sted
##tated
##uated
##ulates
##uli
##wise
##zation
ahmedabad
blocks
boston
classic
computing
contractor
counted
courses
cutting
dainik
definite
deity
excitement
football
glucose
hiding
ignoring
inquiry
intervention
logo
mm
mmr
objectives
outstanding
override
qualifications
reactions
relationships
retain
riding
secularism
silver
tablet
technological
tested
throne
totalitarian
tourists
transformed
unavailable
varieties
womans
wore
writable
##ahar
##deo
##erated
##free
##indian
##itive
##mail
##otive
##otives
##pd
##rage
##rma
##rted
##uel
##zon
adviser
animation
appreciate
argues
arrange
arrows
ash
blog
bond
canceled
chromosome
comfortable
concrete
convince
cultivation
dates
define
deities
dev
divisions
dubai
earn
edition
frames
gcompris
harvard
ibn
ireland
kanpur
karna
lawyers
microphone
mid
monument
nearest
nest
northwest
notion
oppose
polluted
pray
preference
printers
protecting
renamed
representing
revolt
scroll
sudan
taste
tremendous
trends
uncle
villagers
virus
voices
wastes
##aa
##aka
##ceived
##cope
##dence
##eshwar
##ests
##ete
##fit
##here
##hic
##kin
##lis
##mers
##meter
##oda
##ode
##ows
##rakash
##rank
##ride
##ros
##rough
##sses
##tarian
##urban
##vance
##xies
accessibility
adjust
advantages
ahmad
aryans
attraction
bell
calm
cement
challenged
chapters
chris
concentrate
consensus
corrupt
deals
decay
devotee
disorder
edward
empowered
engineers
enters
failing
funeral
hazards
importing
inspiration
invite
involvement
judgment
kuwait
landscape
liberals
linux
medieval
meets
missed
mud
nato
nautilus
navy
oceans
peculiar
populations
recipients
reflected
rendered
retirement
selecting
shapes
sharon
sits
slavery
stops
striking
suri
suspended
sweden
thoroughly
tongue
umpire
upload
vested
visa
wholly
##aked
##aming
##aring
##atch
##ccan
##conf
##ev
##ference
##gations
##gos
##haran
##hit
##install
##lines
##lone
##loy
##nga
##nge
##oe
##ophical
##orns
##puri
##tz
##ules
##uns
##vind
##yal
##yya
alike
attain
bleeding
bombs
bones
cash
coat
compositions
crimes
damaged
db
dbus
dental
domination
driven
economical
eleven
emotions
enforce
establishing
expects
fears
flowing
glasses
hanging
heavily
homework
interval
kitchen
linguistic
luck
malformed
marry
minorities
missionary
noble
nuisance
omar
origins
orissa
painful
participants
pearl
peninsula
phrase
pot
projected
pupils
rebels
remedy
reveals
roughly
smooth
solved
summit
surely
touched
trend
variations
visitors
voters
washing
##aram
##arya
##break
##cement
##cience
##cket
##employed
##fier
##gia
##hai
##herent
##hia
##hola
##hushan
##ident
##ishing
##kes
##lected
##map
##nity
##nta
##olved
##ort
##screen
##suing
##td
##tering
##ume
##urity
##venience
##want
##yer
##yst
abraham
accessible
aimed
bears
cartoons
chest
citys
collecting
consequently
consist
constituency
crazy
crease
creates
criteria
curious
deprecated
differently
enthusiasm
executed
exploitation
exposure
feeds
handed
harder
hosts
intent
intentions
interrupted
invitation
libraries
limitations
mad
malaria
mandapas
meningitis
observation
organism
partnership
pdf
premier
preparation
quantities
regulation
republicans
retrieve
rushdie
shankar
shepherd
shortage
suspected
suspend
tensions
theyve
tibet
tolerance
wouldnt
youd
##aan
##anda
##ava
##ays
##cian
##cribed
##cture
##duction
##ends
##gged
##ided
##igs
##ild
##lade
##lier
##lihood
##nant
##not
##obe
##olished
##osh
##oud
##quisition
##rana
##rm
##uo
##vative
##wara
##yed
##ype
ac
appeals
bagh
banking
bath
berlin
clubs
compulsory
concentration
conclusions
consultation
controlling
csv
dc
dentist
disconnected
emergence
excluded
exclusive
exclusively
extract
govt
graphical
impressive
intensity
introduce
jury
kathmandu
larvae
latin
legislatures
malware
maternity
meditation
midst
mounted
northeast
planets
presiding
pressing
prevented
promises
pursue
quadrangle
quote
reaches
regardless
rely
repeatedly
restored
scanning
sindhu
smith
spokesman
strings
supplies
surprising
tales
urge
utility
ved
##aga
##bhai
##bhi
##count
##dia
##dual
##ela
##gir
##harging
##hetic
##hysics
##iable
##ilation
##iots
##keys
##knowledge
##lave
##lender
##ller
##nating
##ored
##ounded
##pm
##rance
##sil
##sists
##stitute
##suming
##tara
##uch
##unciation
##vin
##wi
abstract
abuse
acquire
adhishthana
advisory
amendments
astronomy
bachan
beta
bhai
birthday
brahmins
cancelled
capability
celebrate
characteristics
classified
consistent
conventional
defines
dialect
disconnect
displaying
extremist
fails
farmer
fatah
flags
grows
harry
hasan
havent
heights
hungry
impressed
integration
journalists
landlords
lee
letting
originated
plastic
praised
pushed
rendering
safely
scrutiny
serves
settle
sleeping
speaks
statue
strait
suggestion
uploaded
variable
##action
##arity
##ast
##bled
##bt
##cession
##eded
##erland
##gic
##gious
##graph
##habi
##hane
##ifier
##igorous
##ino
##khand
##liable
##mens
##mit
##oked
##olution
##oman
##piration
##pts
##rath
##rya
##tf
##uish
##ulsion
##unate
##uration
##visor
achievements
acknowledged
allocate
angel
api
atmospheric
avoiding
beating
bihari
buddhism
bunch
buses
cartoon
categoryhistory
chalukyan
choices
colleges
colony
conviction
coordination
copper
corresponding
cpu
cuisine
downloaded
encrypt
fault
favourite
fighter
fortunately
geeta
governance
gtg
heating
icc
ime
immense
injuries
involve
ironically
jones
louis
mathematics
mill
mining
modest
neighbors
nonmuslim
oral
philosopher
poetic
prayers
predicted
rana
receipt
remind
reward
rubber
se
seeks
senate
stores
strikes
subordinate
supervised
tears
thick
thin
tie
transliteration
tribe
twothirds
vague
valmiki
versus
wheel
##athy
##ave
##cities
##dated
##dor
##endlink
##etles
##gian
##guard
##hibit
##how
##hpur
##icles
##iding
##iest
##imism
##ines
##lad
##language
##lates
##len
##lers
##mond
##neous
##nounce
##oa
##orough
##plication
##raction
##rah
##signed
##sufficient
##than
##ths
##uality
##ually
##uate
##ulent
##umped
##url
##uzzle
##wide
##yana
achieving
allied
appoint
arch
arent
biography
bowlers
bugs
cairo
cambridge
catholic
clinic
coach
converting
dimensions
dying
earned
embedded
entertainment
farm
filmfare
firmly
fiscal
gender
genuine
gujarati
haryana
ideals
inc
instances
interior
mary
motions
mystery
naren
nasa
navigation
nurse
oasis
opponents
owing
perception
possibilities
preventing
prisoner
protein
regimes
resist
rotation
secondly
seemingly
shortcuts
spacing
superstructure
surrender
syed
tb
tendency
tips
tomboy
varies
warranty
##ahu
##ards
##chool
##cribe
##dict
##duce
##erate
##eting
##filled
##gly
##hing
##ibly
##itarian
##lantic
##lena
##liness
##lves
##mming
##oan
##orate
##oured
##plicitly
##quiries
##races
##rps
##scent
##truct
##urveda
##ven
##viation
abandon
ambition
analysts
anniversary
antisemitism
anymore
aspirations
bench
bikaner
boards
breaks
breeds
broadcast
bushs
comparatively
complained
copied
coverage
dal
darwin
demanding
demons
demonstrations
deposit
dramatic
drum
echo
enabling
gnu
goats
hazard
heredity
hits
iv
kilometers
laxman
lea
leftist
legally
liquid
magazines
mayor
memorial
ordinance
oxygen
performing
personnel
pope
primitive
producer
qualified
reasoned
receives
refers
reproduction
reveal
rises
robots
shame
shooting
silk
ss
super
surgery
targeted
taube
unemployment
verdict
victoria
viewer
##amine
##ayat
##ban
##bian
##con
##ctory
##dian
##due
##ex
##gator
##hamandapa
##ips
##ivism
##khan
##lia
##made
##mo
##nam
##nanda
##ocket
##oi
##ola
##olled
##ope
##orial
##ounce
##ource
##pection
##pered
##pires
##piring
##plified
##pradesh
##print
##productive
##rams
##rayed
##rived
##smic
##tant
##tinent
##two
##ulsi
##uni
##urd
##urious
##wala
##wer
##xious
ahmadinejad
alexander
algorithm
ambitions
ambitious
anand
appeasement
appointments
approve
boss
breach
bulk
championships
cleaning
commerce
countrymen
covering
dad
directories
dominated
excuse
expired
fee
filters
formula
ft
gdp
grain
hum
idols
incarnation
invasion
korean
locate
mac
mankind
metres
naidu
node
nov
oath
occasions
paint
penetration
petroleum
preamble
profiles
profiling
promotion
purely
quietly
reflect
refresh
satisfactory
scotland
smell
steady
stolen
strict
suggesting
tala
technologies
theatre
threatening
tissue
titles
unrwa
upset
upto
viceroy
##ahan
##airs
##amma
##chal
##chief
##click
##conds
##ette
##father
##fective
##fects
##ggling
##hman
##hor
##itra
##laves
##lusion
##mha
##motion
##nament
##new
##nomous
##orted
##ove
##perative
##plicit
##po
##preted
##rushing
##sance
##sian
##sore
##sters
##sumption
##uja
##urt
##usly
##uspicious
##venge
##vo
##wad
##zer
activated
adjustment
assets
atomic
badly
balanced
barriers
behave
belonged
bloc
broadband
butterflies
census
commonwealth
comparable
corporate
criminals
determination
donor
exercised
fever
founding
gateway
geometry
governmental
griva
hell
henry
hey
historically
hoping
iata
instructed
jai
ji
kashmiri
ladies
laugh
ldap
leather
lectures
lowest
lucky
martial
midwife
opponent
palm
passport
posted
professionals
pronounced
rally
ritual
satisfy
saudis
screened
shock
sin
somehow
tunisia
unlimited
ward
welcomed
womens
##ags
##aw
##bai
##bor
##brahim
##cia
##claimed
##ddin
##ece
##ently
##eurs
##ferred
##fession
##got
##hes
##hini
##iated
##iety
##ii
##iki
##ired
##kan
##kshmi
##lite
##lue
##makers
##mentary
##minent
##nical
##olf
##olio
##otism
##pc
##pus
##rafts
##raphy
##rapped
##rators
##reciation
##rome
##rone
##rooms
##rose
##rown
##sain
##scribing
##sistent
##term
##thon
##urb
##urk
##west
##with
##xed
##yam
aditala
affecting
afternoon
attributed
camels
caring
cleared
codec
combine
commit
conception
conquered
conversations
da
dawn
designs
developer
earthquake
eighth
electronics
fig
glacier
grey
guided
hole
incomebased
inhabitants
inscription
listing
lobby
loses
madrid
mamata
mausoleum
measurement
owned
painted
parameter
passenger
pregnancy
prem
prevailing
realistic
referring
resignation
respective
revert
rupee
skill
solicitor
streams
stretch
sur
throwing
ticket
typically
usb
vessels
virtue
visitor
wash
withdraw
##abha
##ads
##aha
##alam
##astic
##aving
##cis
##ctic
##dding
##ddy
##duced
##eur
##gla
##gupta
##icides
##iers
##iments
##iology
##isa
##ishi
##itative
##kand
##lane
##lating
##mented
##nand
##ody
##ono
##oreyed
##pace
##ques
##rading
##rals
##rds
##simha
##state
##tained
##teral
##uda
##uga
##ulus
##ux
##wall
##worthy
ab
adverse
ah
approaches
aryan
attained
australian
authenticate
ayatollah
bali
barely
brazil
butterfly
camps
civilians
clause
clay
coastal
commentary
confident
confusion
convincing
cooperate
creatures
decides
deliberately
delicate
desirable
dharma
dilemma
disappear
ek
electronic
exact
explaining
focusing
furniture
gathering
gsm
guarantees
icao
incredible
indication
infinite
innovation
invented
invisible
jesus
joe
keen
kingdoms
lab
litigation
lotus
maharaja
mandatory
morsi
nose
notices
novels
paradise
partial
pilasters
pockets
pointing
postwar
precise
profits
racism
rail
replacement
sahib
shree
sikh
silly
simon
sing
slight
southeast
ssl
undertaken
violation
##adi
##ague
##alman
##aq
##bes
##call
##called
##certain
##chanical
##ciding
##ctural
##cure
##fined
##fix
##form
##gb
##grade
##gree
##hake
##hore
##imate
##isuse
##itic
##lining
##losed
##lot
##ltry
##luding
##migrant
##nake
##named
##ndence
##ngo
##onia
##parts
##pp
##put
##rains
##raja
##rbal
##retion
##rushed
##serve
##site
##sized
##ssay
##stical
##tling
##tri
##ubtle
##urs
##usted
##vir
##wear
##ynthesis
algeria
altogether
ankara
ashok
attractive
aug
balls
bhakti
bone
boxes
buried
classification
conquest
constructive
convenient
corporations
counsel
counter
departure
deshbandhu
distances
egypts
endorsed
exploited
facilitate
friday
genius
governing
gross
haguichi
heroes
heroin
hint
indirect
influential
insight
jaisalmer
laying
loksabha
lover
magnitude
necessity
notably
noting
nowhere
obsolete
prosperity
protests
pune
resolved
revolutionaries
rival
salvation
seed
sensible
sheet
sindh
slogan
spaces
substance
tape
thackeray
translations
treating
tux
vietnam
visits
vivekananda
##acular
##alyst
##anese
##anks
##ariat
##ater
##awar
##brew
##dd
##elled
##ficient
##fying
##gni
##gy
##hamed
##him
##hir
##hiv
##hoot
##inus
##izer
##justice
##lie
##lised
##lood
##lore
##mobile
##nar
##oney
##ov
##paper
##pectrum
##pot
##raging
##read
##reator
##rging
##rie
##rits
##romising
##rophy
##rta
##ruti
##sisting
##sor
##sort
##ssing
##stries
##tem
##tern
##tip
##top
##trogen
##ubtitles
##urry
##uth
##world
accuracy
acres
acute
allegiance
arabisrael
austria
beneath
briefly
capabilities
capita
ceased
chart
colours
competitive
consolidated
cooking
crying
dies
disciples
drums
egyptians
eighteen
exciting
expectations
failures
fatal
fertilisers
goodwill
historian
idle
indiana
inter
invested
jaya
jersey
khalifa
kms
lovely
mantras
maps
motilal
mozilla
mukherjee
nigeria
obstacles
operational
playwork
poland
premium
prevalent
providers
rebellion
reserves
ride
rocks
sahitya
sanctuary
screening
sect
servants
shook
sixty
sophisticated
stuck
texas
tokens
waist
wedding
whoever
wildlife
yours
##.
##1
##2
##3
##4
##¡
##£
##©
##°
##±
##×
##æ
##ø
##đ
##ı
##ł
##ə
##ʿ
##α
##γ
##ε
##ζ
##η
##ι
##κ
##λ
##μ
##ο
##ρ
##σ
##τ
##ا
##ة
##ت
##ح
##د
##ر
##س
##ك
##ل
##م
##و
##ي
##ः
##अ
##आ
##इ
##ई
##ऋ
##ए
##औ
##क
##ख
##ग
##घ
##च
##ज
##ञ
##ट
##ठ
##ण
##त
##थ
##द
##न
##प
##ब
##भ
##म
##य
##र
##ल
##व
##श
##ष
##स
##ह
##ा
##ि
##ी
##ो
##१
##५
##७
##८
##চ
##দ
##ন
##ব
##ভ
##র
##ষ
##স
##া
##‘
##“
##”
##•
##⁄
##€
##←
##→
##∶
##⌘
##☺
##☻
##♫
##➣
