[PAD]
[UNK]
[START]
[END]
1
2
3
a
b
c
d
e
f
g
h
i
j
k
l
m
n
o
p
q
r
s
t
u
v
w
x
y
z
£
°
±
μ
ः
अ
आ
इ
ई
ऋ
ए
औ
क
ख
ग
घ
च
ज
ञ
ट
ठ
ण
त
थ
द
न
प
ब
भ
म
य
र
ल
व
श
ष
स
ह
ा
ि
ी
ो
চ
দ
ন
ব
ভ
র
ষ
স
া
‘
“
”
⁄
€
☺
☻
♫
the
of
and
to
in
is
##s
that
was
it
for
this
on
are
as
with
by
be
he
from
or
not
his
which
you
have
but
at
they
has
we
an
there
were
its
one
can
their
all
##ing
india
had
so
also
##ed
if
these
who
other
when
people
will
about
more
##d
them
rrb
lrb
been
##a
time
##ly
what
after
some
only
like
do
no
indian
out
any
two
up
many
government
into
world
years
very
because
first
##e
##i
made
him
your
may
would
her
then
our
than
now
##y
most
even
should
##n
##r
state
##t
new
over
my
life
such
under
##er
could
where
called
during
get
work
she
court
way
between
year
before
how
make
##al
country
us
##es
being
said
hindi
see
part
those
here
well
per
through
used
great
did
just
three
take
different
day
me
know
much
same
man
every
power
##m
place
important
national
##l
both
use
against
go
while
house
own
war
each
back
right
good
##h
name
##o
high
british
according
however
political
come
given
##an
help
number
congress
must
think
another
going
long
water
does
main
states
##k
language
last
came
found
started
parliament
got
hindu
form
give
known
end
law
need
case
four
th
god
human
down
position
minister
things
without
social
want
president
public
##on
constitution
days
religion
later
period
##ers
why
say
system
due
become
air
though
members
change
city
small
among
became
party
##ment
few
english
cent
##ation
put
old
still
little
women
really
body
large
second
too
took
around
order
south
done
person
children
##in
look
##ness
history
since
fact
age
##able
development
side
times
again
taken
##ic
general
whole
act
information
says
family
million
within
common
##u
##rs
means
went
home
today
area
##ra
century
industry
men
thats
river
king
dont
##p
best
always
story
special
something
book
religious
service
mumbai
etc
away
group
never
district
present
example
delhi
akbar
find
laughter
temple
left
freedom
next
##ity
muslims
word
##ar
five
culture
countries
matter
actually
im
cricket
literature
thing
often
cannot
##ya
##ry
set
available
food
less
local
child
love
far
muslim
written
##or
article
till
parts
thus
##le
union
##te
big
sanskrit
school
problem
sabha
central
words
international
therefore
kind
lot
various
education
##c
committee
himself
death
land
##na
support
health
mind
##nt
##ting
young
chief
control
possible
modern
##ion
based
considered
once
able
point
pakistan
thought
##g
itself
seen
along
making
problems
might
working
having
terrorism
months
changes
famous
front
money
towards
gave
others
reason
better
north
society
singh
together
full
free
course
woman
further
rule
process
early
upon
whether
bill
united
class
level
question
almost
foreign
hand
movement
supreme
built
either
production
earth
policy
yet
believe
comes
view
##ta
capital
member
brought
plan
role
near
team
##ism
west
##less
rs
nt
population
east
economic
keep
##ies
##us
nature
##b
action
courts
news
business
film
played
places
doing
justice
ram
##ful
##th
army
living
hindus
several
told
head
major
##ts
type
##ted
face
##ri
video
##ka
books
live
play
effect
growth
services
show
phone
certain
##am
result
top
##ia
call
##ous
knowledge
office
real
past
prime
##ge
##ma
off
third
community
enough
##re
category
china
son
themselves
##as
##ce
##ive
police
ganga
open
cases
following
future
##ha
ancient
areas
science
start
tell
council
half
already
mobile
##en
born
company
mother
rights
##pur
soon
using
earlier
wrote
father
applause
getting
blood
heart
##um
village
##ur
above
including
run
bengal
taking
pradesh
powers
##ne
ball
music
behind
necessary
developed
read
six
art
passed
light
runs
held
named
cause
decided
##ling
established
##it
civil
research
middle
##ate
##man
total
understand
short
simple
subject
subhas
capacity
##ent
##va
idea
rate
##la
talk
theres
popular
whose
gandhi
outside
technology
created
england
ground
care
lord
poet
america
islam
ago
feel
single
began
wall
wanted
##the
industrial
##est
rules
ever
##ble
assembly
true
##tion
theyre
##ist
natural
am
ministers
nepal
energy
independence
quality
asked
needs
perhaps
quite
let
published
batsman
##is
##j
birth
entire
least
leaders
region
##st
##ter
makes
##et
beginning
generally
temples
western
average
clear
bring
hands
ask
sex
##x
groups
cultural
industries
languages
##v
houses
importance
increase
##ary
decision
##ch
majority
sent
##red
difficult
usually
field
increased
stories
try
types
##and
until
sometimes
##ure
experience
poor
rajasthan
similar
terms
works
inside
krishna
lok
roy
university
nation
species
kept
related
section
youre
disease
global
march
study
conditions
interest
report
chandra
ways
election
particular
situation
provided
media
matters
sense
internet
structure
wrong
##f
animals
red
##se
demand
indians
building
individual
insects
##ated
##il
gets
tried
basis
issue
source
takes
##ty
higher
market
##hi
anything
centre
environment
personal
pollution
american
beautiful
hard
solar
##age
##ant
plants
steel
tonnes
writing
lost
match
sea
series
gives
provide
basic
game
nothing
##led
bombay
fort
line
cells
complete
evidence
poems
mean
pay
spread
tagore
died
becomes
situated
meaning
forms
although
security
calcutta
force
##at
nehru
politics
progress
test
wife
limited
nor
##li
except
##ng
list
##nce
instead
questions
space
##ating
financial
leader
stage
kashmir
##ct
particularly
europe
ideas
purpose
##da
everything
rather
trial
africa
truth
coming
difference
goes
opinion
thank
white
administration
formed
activities
advice
trade
strong
##ji
authority
included
laws
lower
week
commission
struggle
data
meeting
official
seven
##ised
base
month
percent
rest
bad
changed
especially
festival
responsible
##w
finally
lives
shall
##ial
##ti
followed
quran
across
asia
described
friends
powerful
##el
saw
department
move
speaker
##ors
giving
january
poetry
cell
center
continued
independent
material
apart
forces
normal
longer
stop
sun
uttar
forward
lead
produced
##han
cost
greater
mahal
youtube
consider
looking
required
rise
##ds
##ious
deal
deep
green
meet
session
thinking
influence
turn
##ian
contact
easy
hours
parliamentary
revolution
empire
leave
write
executive
former
met
size
##ni
close
conference
islamic
temperature
##ally
didnt
low
accepted
cities
legs
ones
respect
##ged
##ish
black
felt
indias
male
round
create
happened
peace
account
fast
private
goods
lakh
oil
##up
construction
kids
project
style
trying
appointed
eight
judges
northern
original
plant
square
won
##ise
below
code
islands
return
generation
hold
judge
names
parties
##ized
build
climate
rajya
allowed
attention
mahabharata
serious
##id
follow
highest
brother
declared
fundamental
legal
night
reached
received
scientific
believed
elected
alone
paper
post
practice
reach
room
##ns
##ve
college
income
workers
daily
gods
students
whom
complex
germany
largest
treatment
seems
computer
else
external
eyes
october
stone
##ms
award
fire
job
organisation
persons
shows
##sh
include
khan
killed
protection
visit
##ring
character
criminal
share
value
##land
procedure
text
##ping
cant
carried
concerned
divided
heard
learn
road
shape
beyond
charge
fear
female
legislative
condition
feeling
led
model
opportunity
constitutional
taj
##ll
economy
involved
judicial
nations
saying
##kar
##ck
military
nearly
rivers
successful
wide
worked
##les
coal
continue
directly
mainly
democracy
growing
officers
agra
cabinet
carry
date
fight
method
needed
probably
reading
sector
transport
##ible
animal
google
message
step
attack
basava
direction
reality
sure
traditional
shown
stand
##ities
feed
vedas
direct
sides
spirit
##ments
governor
interesting
raised
remain
spent
##men
appeal
happen
kingdom
poem
programme
send
southern
speech
tamil
vedic
added
application
issues
japan
someone
success
thousand
walls
##tic
besides
mentioned
motion
reasons
##ging
address
eastern
jail
loss
ministry
parents
script
car
companies
governments
term
##nd
electricity
forest
produce
proper
recent
remember
accept
defence
doesnt
elections
final
located
manner
online
page
tradition
warming
weeks
articles
caused
thousands
unity
adopted
amount
claim
european
feet
placed
training
tube
badruddin
hit
hope
ie
picture
shah
worlds
billion
centuries
faith
likely
mahatma
matches
maximum
range
schools
##ad
##our
activity
april
board
november
player
videos
worship
##ai
##der
##tes
##to
biggest
notice
site
##de
##ped
##tor
answer
fall
friend
latter
outer
penis
physical
statement
whatever
happens
kinds
learning
premchand
sound
bc
mr
upper
bjp
completely
exercise
expected
gandhiji
officer
punjab
voice
##ving
dead
discussion
holy
teacher
##ded
circumstances
effects
garden
leading
##ram
affected
crore
gone
huge
july
letter
lies
moon
planning
ten
vimana
web
writer
##ga
bank
citizens
ive
pressure
proved
##ical
cut
design
jurisdiction
km
netaji
##ning
##z
agriculture
current
duty
milk
mostly
search
separate
turned
december
happy
husband
increasing
mughal
provides
religions
remained
acts
atmosphere
everyone
ordinary
rich
##ding
##ence
##ries
agreement
benefit
democratic
equal
fine
knew
laid
moment
moral
press
price
principles
software
specific
violence
wants
##ists
budget
pillars
resources
studies
tv
##he
connected
railway
recently
risk
scientists
speak
website
weight
##ls
ad
bhagat
extent
married
movie
officials
opposition
ramayana
soul
standard
surface
vajpayee
##line
active
afghanistan
dr
philosophy
returned
starting
stay
approach
degree
february
leadership
##ke
##war
caste
larger
remains
responsibility
tribunal
vishnu
accused
era
links
rama
throughout
##nath
collection
efforts
grow
heavy
lines
medical
radio
songs
sri
supply
telephone
##ut
august
dance
marriage
tool
buddha
existence
neither
palace
property
standing
understanding
brain
decisions
fully
numbers
reference
revolutionary
weve
wicket
##cy
annual
bit
classes
looked
paid
pass
path
products
scale
simply
strength
variety
##ir
buildings
gas
genes
late
playing
running
september
status
##ance
##cing
interests
lets
looks
##ss
conflict
die
immediately
indeed
inner
joint
kabir
whats
ganges
mass
meant
moved
st
veda
##ine
##ks
##ton
carbon
costs
maybe
offer
poverty
vote
##tive
addition
additional
bose
completed
crores
easily
eggs
equipment
helped
record
urdu
##day
battle
beauty
chairman
details
effective
hear
management
proposal
race
railways
ruling
significant
##ations
##ide
##ions
essential
families
spiritual
tax
clean
decide
keeping
mandapa
prepared
views
##ned
##pa
bharat
campaign
ensure
function
fund
ready
unique
##ps
##un
concept
examples
ill
introduced
morning
points
regular
street
task
villages
##ba
##har
bills
develop
differences
doubt
duties
finance
instance
levels
phase
presented
systems
##sing
##sm
aim
creation
dollars
films
followers
gujarat
impact
mahadevi
materials
methods
players
results
royal
travel
##ration
##ul
ali
committees
decade
london
output
pattern
reduced
regions
scheme
theory
##ction
##ile
##mi
##ties
changing
compared
figure
grew
imagine
legislature
machine
maharashtra
minutes
mountain
museum
network
saint
talking
terrorist
##hip
##om
diseases
includes
institute
labour
newspaper
nine
please
released
review
unicode
useful
architecture
chance
drugs
institutions
intelligence
normally
unless
whereas
##like
##rated
box
content
island
june
noise
resolution
steps
wish
##sed
agree
amendment
check
clearly
interested
provisions
sources
##ana
association
highly
letters
machinery
merely
millions
ocean
primary
shrine
smaller
speed
##out
##tors
covered
events
valley
allow
beings
colour
functions
historical
image
iron
offered
regard
relations
seeing
seem
sexual
subjects
town
contains
damage
domestic
factors
joined
relationship
##ay
##ore
appear
belief
despite
fair
features
greatest
height
ideal
individuals
internal
##sion
##way
##ze
banks
bowler
britain
developing
doctor
learned
reduce
##ified
##si
##tra
bengali
causes
couple
lake
mission
rural
sentence
units
##ize
description
entirely
hospital
hour
lived
mahabharat
pain
plans
secretary
teeth
##di
##rate
actor
aid
bat
becoming
instrument
length
regional
sort
tons
##ner
##per
break
challenge
communication
minimum
stated
##ets
daughter
debate
explain
flow
link
principle
protect
##ral
amitabh
authorities
babu
baby
bachchan
division
hearing
policies
universe
##tha
##ual
##vi
access
corporation
expansion
literary
master
moving
oh
organised
proceedings
regarding
removed
safe
soil
table
vast
weather
win
youth
##ak
##ened
##ny
akbars
connection
hall
peoples
prices
sessions
translation
##ons
administrative
batting
brahma
fixed
horse
japanese
marathi
origin
poets
program
save
showed
starts
straight
##ans
##ari
attempt
diabetes
emperor
extremely
foundation
healthy
ii
jute
pictures
student
suddenly
##bility
##bs
##ward
bodies
crisis
desert
elements
enjoy
key
persian
previous
scholars
sons
sugar
vision
worth
##ability
##ow
anyone
branch
career
constructed
cotton
dictionary
door
fit
girl
imperialism
impossible
insect
lack
totally
unit
##ants
##ification
##im
devotion
entry
formation
mountains
pollutants
presence
safety
##med
##rating
affairs
cold
fish
league
note
opened
permission
raise
ruled
star
announced
author
ca
celebrated
childhood
failed
floor
marble
measure
measures
mouth
operation
orders
seemed
setting
staff
trees
uses
##isation
ability
associated
commercial
crime
facilities
girls
hundred
maintain
observed
phones
referred
standards
teach
##ably
##ath
##bed
##ee
agreed
chinese
distance
emergency
event
eye
fell
france
heat
instruments
kings
provinces
subhashbabu
##dy
##ulate
armed
federal
filled
golden
prevent
rain
selected
self
sign
sir
teachers
technical
##ah
##ala
##ship
##time
credit
dark
facts
funds
inspired
mental
release
rulers
stands
uk
##king
ayodhya
buy
chapter
enter
memory
mills
skin
speaking
specially
title
values
verses
watch
##ire
##this
add
agency
competition
consists
draw
employment
fourth
happening
imports
knows
lose
models
none
park
prove
relation
sitting
tree
birds
choice
existing
genetic
judiciary
medium
myself
otherwise
proposed
##ag
##rt
co
himalaya
kumar
leaves
swami
tools
touch
universal
##based
##nts
##tal
arrived
bringing
conduct
cover
dream
effort
everybody
fighting
hence
offence
permanent
season
soviet
spite
understood
yes
##bad
##ran
##rd
##which
composed
equally
establishment
expect
expression
launched
port
representative
seek
subhash
target
twenty
urban
waste
##ses
##use
actual
babies
blue
carrying
degrees
director
ends
hes
jain
pure
vital
##end
##pe
##pt
aging
arrested
balance
branches
charges
depends
deputy
flight
influenced
listen
partner
sacred
territory
texts
##ery
##ie
##ings
##ric
##ved
allahabad
arabic
attacked
audience
distribution
essentially
extra
journey
objective
provision
refused
roof
slow
stones
##ber
##dev
##one
apply
communal
gradually
minds
raw
receive
senior
shri
solution
spend
stuff
writings
##ama
advantage
appeared
cancer
citizen
closed
committed
correct
exchange
exist
feelings
gold
hind
id
initial
issued
markets
patient
principal
republic
ruler
treated
##ition
appropriate
avoid
begin
blind
cavetemple
certainly
claims
dry
failure
gases
leg
lots
mere
potential
siva
##ol
##os
##work
arms
context
entrance
koran
masses
movements
okay
ourselves
song
stock
tea
version
##light
##uring
achieved
analysis
australia
bihar
desire
devi
engineering
epic
exactly
exports
founded
humans
investment
positive
prominent
seats
##co
##ining
##vation
brothers
characters
considerable
converted
dedicated
demands
dioxide
evening
forced
introduction
novel
opening
organisations
pleasure
sacrifice
signs
sought
walk
##ard
##cted
##most
achieve
basically
bed
controlled
directed
educational
environmental
heres
hot
intellectual
legislation
occur
plays
ramalinga
supported
teaching
teams
television
traffic
whenever
##ates
##ator
##ip
##rn
##sis
##ulation
affect
consumer
designed
faces
fields
lay
map
obtained
organization
passing
positions
relief
shiva
taliban
usual
wealth
##tan
confidence
fresh
join
nobody
prasad
remarkable
representatives
secret
specimens
taught
##cts
##ization
##van
adequate
brahman
consideration
customs
mosque
professor
prophet
wings
yamuna
york
##bar
##cks
##yan
bear
brings
broken
cattle
devanagari
follows
hundreds
mention
obvious
oldest
projects
quickly
reported
station
structures
suitable
surdas
tomb
##ening
##ini
##ro
##ves
agricultural
attitude
bowling
capable
compassion
cooperation
emission
entered
evolution
facing
jawaharlal
joy
recorded
sit
sita
symptoms
##ier
##ome
##sa
##tions
aware
complaint
consciousness
critical
estimated
feature
forests
gate
greenhouse
heaven
madras
obviously
performance
stopped
users
waiting
##ey
##ose
##rous
acid
bigger
camel
cavetemples
chosen
dna
improved
largely
opposed
perfect
queen
summer
tells
youve
##ain
##ap
##cent
##em
##tory
##ute
appears
begins
benefits
cave
communities
educated
fly
ice
index
lanka
nuclear
reports
vary
writers
##ising
##ld
##ndra
##ot
##ress
asian
boy
concern
constituted
diet
dynasty
helps
jobs
object
overs
performed
pretty
purposes
roads
sc
similarly
somebody
suffering
##ination
##iya
##ys
awarded
believes
belong
eat
fifth
figures
goddess
hanuman
helping
leaving
rising
serve
sudden
thoughts
victory
wage
##ative
##istic
##ja
##ulated
adult
advanced
calls
guru
non
opposite
putting
soft
stars
suggested
tendulkar
tourist
##by
##ges
##ler
##mal
##ming
##ology
allah
bound
communist
cultures
faced
finding
images
improve
kill
older
pages
permit
personality
providing
reforms
rss
sister
sky
user
volume
##ft
absolute
combined
corners
depend
destruction
diwali
drawn
enemy
entitled
expenditure
explained
express
goal
holding
immediate
piece
rai
socialist
tour
ultimate
##ators
##hu
##ient
##ray
##set
##ug
##vara
##za
##zing
appearance
captain
criticism
german
lady
metal
peak
represent
revenue
sculptures
vagina
worse
##als
##ice
##me
##res
acting
al
alternative
border
coast
contribution
detailed
divine
flowers
gain
magistrate
muhammad
prison
prose
seat
socialism
spot
stages
##but
##com
##els
##ins
##oo
##oring
actions
arjun
arrest
aspects
bacchan
behaviour
cellular
establish
extended
favour
fuel
granted
limit
listening
manufacture
minute
nationalism
objects
pitch
professional
puran
reader
surrounded
traditions
translated
##cal
##fully
##ki
##of
##ters
##tle
##ury
##zed
accident
calling
club
drive
extreme
facility
farmers
feeding
forth
gene
generations
hardly
intercourse
iran
kabul
lesson
net
practices
rare
remaining
terror
walking
wonder
##aries
##pal
acted
arts
attached
breed
broad
card
characteristic
choose
civilization
contemporary
creating
expressed
numerous
occurs
rates
reaction
remove
scientist
tajmahal
wear
##ite
##lation
abroad
ahead
arab
asking
contain
corruption
crown
dangerous
definition
describe
discuss
email
equality
font
gift
hair
kolkata
nadu
narrow
properly
records
relating
sell
unfortunately
yourself
##ang
##bal
##ight
##ika
##jan
##ud
abdul
destroyed
discovered
districts
drug
edge
elephant
ended
george
leads
meanwhile
opportunities
pandavas
planet
possibility
proud
slowly
stood
streets
temporary
track
##ched
##gh
##ham
##ished
##rant
##sive
admitted
aspect
brief
catch
conducted
confined
egg
escape
grown
hill
hinduism
homes
kalpana
killing
lal
photo
prize
rear
sections
seventh
substantial
sufficient
turns
weapons
wood
yearold
##ced
##ents
##garh
##ify
##old
##val
adults
azad
background
castes
chair
compensation
cup
danger
eventually
evil
lahore
loved
occasion
progressive
prosecution
russia
score
showing
slightly
weak
##go
##kh
##ung
absence
ages
applied
appointment
approximately
commissioner
constituent
continues
corner
element
extension
french
guidance
improvement
knowing
lie
limits
linked
prior
response
schedule
scored
soldiers
strategy
telling
##cular
##ik
##ined
##tation
assistance
assumed
awards
channel
dam
determined
falls
festivals
gardens
housing
library
naturally
nicobar
organisms
ozone
qualities
rock
shot
sleep
sold
stations
survey
wait
winter
##bi
##ess
##mer
##nes
##raj
##table
##urse
acquired
citizenship
collections
difficulties
imprisonment
indicate
keeps
mark
organs
papers
reform
require
spoken
supposed
trouble
truly
trust
unable
wheat
##aging
##nation
##ue
agencies
charged
chemical
christian
classical
components
crops
decades
declaration
depending
drama
elephants
flat
heritage
identity
illegal
kerala
leaflet
marked
pieces
product
punishment
scene
served
shrines
threat
tilak
train
unlike
visible
wickets
yellow
youll
##ane
##hood
##ility
##its
##ium
##ture
##ular
batsmen
burden
complicated
constant
controversy
defeat
dispute
factor
greatly
humanity
operations
organized
processes
represented
requirements
sachin
solid
studied
thereafter
transportation
twice
##izing
##og
##ory
##ras
accounts
andaman
answers
attracted
behalf
boys
device
difficulty
experiment
extraordinary
guys
latest
maintained
miles
pair
pointed
portion
realised
severe
sikhara
sonia
tourism
verma
visited
voting
wild
##ca
##cation
##ces
##ern
##ied
cars
consumption
containing
defense
discussed
double
faster
grounds
gupta
himalayas
indira
items
presidential
profit
regarded
rose
sixth
transfer
vehicles
##ara
##ati
##ered
##ically
##my
##nding
##ten
##une
##ures
##wal
##wing
amazing
attacks
bird
duration
experiments
factory
geographical
imagination
instructions
landlord
liberation
messages
noted
pakistani
perform
platform
prince
robot
sanctum
sculpture
settled
suffered
terrorists
unknown
votes
willing
##city
##gal
##ians
##logy
##nagar
##ound
andhra
bomb
brahmin
captured
chamber
cloth
computers
derived
encourage
encouraged
familiar
firm
games
increases
mixed
mohammad
municipal
recommended
saints
sets
sheep
smoke
technique
victims
watching
##back
absolutely
african
applications
artificial
begun
burning
command
considering
cycle
digital
doctors
emerged
emissions
honour
indus
munshi
nationalist
newspapers
organ
precious
registered
respectively
sight
socalled
witnesses
##ats
##bly
##charya
##eries
##her
##ok
##que
##unt
advance
belonging
caught
chawla
combination
conclusion
convinced
deaths
diversity
dome
employed
flag
formal
fun
herself
native
patients
patterns
punjabi
realise
represents
significance
sms
somewhat
speeches
symbol
tests
welcome
welfare
wind
##be
##lled
bahadur
cool
directions
distinction
dollar
download
earliest
expenses
innings
judgement
nd
ordered
planned
raj
reasonable
resulted
skills
spoke
strike
supporting
ultimately
verse
wonderful
##bit
##cs
##ctor
##ff
##fication
##gram
##lock
##op
##q
##rat
##ura
##ws
alliance
amongst
arabs
block
broke
buddhist
channels
collect
commonly
creative
das
dealing
deeply
dependent
dust
enormous
file
folk
heads
indra
initially
italy
manufacturing
mixture
murder
originally
pace
rarely
rd
relevant
request
sat
satellite
selection
udaipur
vehicle
##ids
##ker
##over
##rent
##ulating
##veda
aircraft
approval
arrangements
assam
carved
centres
chromosomes
constitute
courage
everywhere
forget
harmful
invited
isbn
madhya
periods
pick
quick
reaching
recommendations
secular
solve
sweet
wing
##are
##bing
##krishna
##lam
##lls
##lt
##ncy
##rum
##tered
##ulous
advocate
argument
breast
collected
consequences
daughters
discussions
efficient
flows
focus
implementation
imposed
kalam
meat
meetings
puranas
raising
raja
recognised
representation
roman
schemes
ship
stream
tata
ted
worker
yeah
##general
##row
##sions
##wa
anywhere
carefully
cast
clothes
colleagues
composition
decorated
efficiency
eg
functioning
gita
guilty
lakhs
magic
meter
movies
parent
partition
patel
perspective
pillow
presidency
rapidly
ratio
scope
strange
tenant
treaty
twelve
varied
vimanas
##ese
##gate
##place
##ris
##uri
##ust
abu
approved
assessment
bottom
bought
bowl
conscious
defeated
foot
happiness
institution
jodhpur
namely
offering
resistance
resulting
sand
savarkar
statistics
topic
tribal
##ack
##atic
##gs
##here
##mar
##ree
##shi
##ult
##uous
awareness
ban
brown
civilisation
copy
couldnt
dignity
dominant
emotional
enable
fought
historic
hitler
jammu
linga
mans
moreover
negative
nominated
prisoners
regularly
resolutions
retired
rice
rituals
sheikh
shes
spending
stick
suffer
##bha
##cial
##fied
##hal
##ibility
##inlaw
##ked
##od
##ony
##ool
##vy
##ying
afterwards
bow
burma
ceremony
currently
delay
doors
fairly
finished
grass
holds
karnataka
kilograms
lesser
managed
meters
musharraf
radiation
rapid
refer
satisfied
shaped
talks
usa
valuable
##cate
##class
##cle
##ems
##esh
##fe
##fy
##gation
##hand
##ited
##ological
##pati
##posing
##rian
##rity
##ured
attempts
bar
bay
bharatpur
canada
consequence
continuous
convert
count
dreams
format
guide
identify
jaipur
kuran
lakes
lucknow
mode
nagar
pallava
pandit
plains
plane
reign
responsibilities
seeking
sending
thereby
towns
typing
witness
younger
##act
##etic
##has
##ives
##nal
##ron
##sha
##stic
##tar
anybody
apparently
circular
claimed
color
contempt
cows
discovery
drinking
examination
excess
insulin
john
location
massive
notes
paintings
penal
percentage
politicians
practical
programmes
relative
route
secure
sites
stayed
widely
##ens
##hra
##jay
##kal
##ken
##rical
artist
banned
biological
breeding
delivered
discharge
discover
easier
elder
expert
experts
explanation
females
frequently
grand
grave
guy
hazrat
headquarters
helpful
hidden
identified
installed
liked
mohammed
musical
neck
opinions
overall
painting
provincial
ravana
remote
replaced
restrictions
sick
signed
sounds
survive
tail
violent
wisdom
##ali
##ars
##chandra
##eer
##graph
##hari
##ics
##int
##nda
##oned
##ored
##ption
##ugh
##was
albiruni
categories
closely
consisting
contained
conversation
employees
engaged
evolved
fighters
gained
iii
inevitable
infrastructure
interpretation
kid
liberty
mantra
monsoon
mothers
nice
offices
panel
partly
passage
passion
promote
santiniketan
techniques
tip
trading
viz
warm
worst
##af
##bling
##ep
##off
##pet
##ple
##room
##son
##usion
##wat
alive
availability
bangladesh
blair
chemicals
chromosome
collective
compare
considerably
core
cow
discipline
disputes
distinct
drawing
dress
durga
elsewhere
exists
fed
finds
idol
ki
magazine
males
meal
mood
nath
padma
re
researchers
seriously
shared
sports
spreading
studying
succeeded
textile
tied
tiny
trained
upanishads
voluntary
washington
##ada
##ani
##ciation
##itation
##night
arjuna
belongs
canal
comprehensive
copies
declare
decline
devotee
divide
editor
enjoyed
existed
export
exposed
factories
fathers
firefox
friendly
hills
horses
hunger
indigenous
involves
knees
learnt
minor
motor
mp
nevertheless
occupied
offences
organic
prayer
province
saraswati
somewhere
sorrow
submitted
thinks
transferred
tribes
turning
vested
via
visiting
##dra
##ency
##ght
##had
##hara
##hs
##iled
##ips
##itive
##pose
##sts
##thi
##tical
##tting
##tude
##umb
accordance
addressed
bamboo
bright
browser
compositions
consent
contrary
cross
defined
departments
detail
devoted
drink
eating
entering
eternal
expanded
fashion
frame
isnt
karna
layer
mexico
phenomenon
polluted
ran
realized
revealed
shops
sport
statements
wastes
##culation
##ering
##gar
##ill
##inary
##ior
##jit
##making
##ney
##nk
##oke
##position
##vati
##we
aryans
bridge
crease
dainik
display
distributed
evident
false
filed
fill
flower
innocent
mandapas
monument
outlook
partners
produces
producing
radical
reduction
references
saved
sensitive
settlement
singing
span
specified
terrible
thrown
umpire
waters
##cting
##ncing
##no
##orn
##pat
##tis
##uit
##ume
arguments
assured
bureau
bus
busy
complaints
deeds
definite
deities
diverse
dutt
excited
favorite
federation
govt
grace
grant
harm
hearts
himalayan
intended
larvae
medicine
mythology
nest
occurred
oceans
organism
parallel
payment
pride
ramayan
relatives
ring
scheduled
shoes
sindhu
situations
successfully
thanks
throne
tremendous
wearing
wishes
wont
worldwide
yield
##ams
##cies
##dation
##for
##hindi
##ily
##inated
##nate
##nder
##py
##side
##ways
adhishthana
admit
afford
aims
allows
amounts
bachan
band
beat
boundary
camera
carries
continent
conversion
cultivation
dealt
ears
exploitation
fat
feels
hockey
injury
maintenance
mecca
mine
nhs
passes
portuguese
proof
propaganda
rabindranath
repeated
root
sale
statutory
succeed
tall
territories
throw
tooth
tourists
victim
villagers
wise
##cious
##door
##gue
##if
##ndranath
##nds
##ong
##oti
##pc
##shed
##ster
##uck
acceptance
ahmedabad
amendments
angry
arranged
beliefs
bollywood
cement
chalukyan
christians
closer
clouds
constantly
economical
electric
empowered
excellent
friendship
habits
impression
indonesia
intention
irrigation
kathmandu
lessons
literally
mutual
obtain
option
orissa
pact
peculiar
plain
pm
prescribed
presiding
protected
recommendation
relatively
reply
scriptures
shelter
shortage
sole
store
ved
wars
wooden
##ctive
##des
##iation
##io
##kha
##las
##mic
##nic
##pped
##rial
##stan
##var
##wan
##water
##wed
##yard
affection
aged
alleged
arise
arm
aside
bowlers
brahmins
coffee
coloured
comments
county
currency
de
deity
document
experienced
flying
forming
glucose
guarantee
harmony
hero
illness
machines
minority
missionary
motions
naren
prepare
projected
protest
regulations
requires
snow
stress
subsequently
superstructure
tend
typical
variations
##ash
##cated
##coming
##ders
##ita
##lf
##lines
##mon
##nel
##oes
##osis
##phone
##pping
##ria
##rising
##rth
##tta
##ule
##vated
##wn
afraid
bacteria
bread
breaking
comparison
critics
depression
documents
electrical
engine
grammar
heredity
hindustani
mirror
obama
ordinance
poetic
proposals
protein
push
rajput
rejected
robots
rupees
selling
sharp
surprise
teachings
tragedy
underground
varieties
wellknown
wholly
whos
##ages
##ancy
##cked
##ley
##mate
##ncies
##oid
##oli
##ried
##rive
##tering
adding
angle
applicable
audio
bin
cheap
cinema
circle
commander
contributed
declined
depth
developments
dynamic
forum
geeta
glory
household
incident
initiated
injured
intelligent
investigation
involving
lawyers
legislatures
linguistic
malaria
pot
primarily
recognise
recognition
riding
russian
sake
shadow
sharing
ships
smoking
solved
strategic
structural
subordinate
suggest
surrounding
taxes
turkey
varanasi
viceroy
warning
wasnt
watched
##born
##das
##ew
##ger
##hat
##inate
##rai
##sar
##uation
##ump
atmospheric
automatically
brave
breeds
colonial
consequently
conspiracy
customers
delivery
exercised
expensive
foods
governance
griva
guard
idols
integrated
lawyer
laxman
liberal
longterm
loose
moves
nasa
nearby
nobel
northwest
noticed
offers
pilgrimage
politically
proportion
protocol
psychological
quantity
rent
returning
revolt
stomach
stronger
subsequent
suit
sympathy
uncle
valmiki
worry
##au
##dhi
##ending
##ila
##lies
##loom
##nta
##raft
##rain
##rates
##rit
##tly
##und
##used
aditala
arrival
attain
backward
crowd
demanded
differ
drop
drum
elaborate
employer
enemies
fail
flowing
frequent
generated
goats
guess
hits
increasingly
lea
lying
meditation
messenger
metres
miracle
northeast
owner
pen
personally
possibly
praise
preamble
promised
publicity
quarter
receiving
reproduction
screen
seeds
separated
separately
shell
silent
singapore
sits
sorts
sovereign
symbols
talked
tibet
tries
uniform
varies
wider
womans
##dha
##encies
##eous
##ere
##ever
##iling
##mit
##ners
##nse
##rable
##rim
##ru
##sia
##sible
##stone
##ula
##yana
accompanied
appoint
attraction
candidates
challenged
classified
comparatively
countrymen
delta
edition
ending
enquiry
ideals
kanpur
lights
literacy
losing
manage
masjid
mining
offline
outcome
oxygen
pilasters
printed
quantities
realize
reflected
residence
roots
sardar
secondly
shares
spell
spots
tala
targets
upto
vessels
vice
##ature
##dar
##eve
##isance
##ises
##mination
##olic
##orous
##ota
##pect
##rants
##ratic
##uated
##ural
##with
achievement
advantages
americans
arrangement
caves
chain
completion
conception
contract
deliver
deshbandhu
dialogue
effectively
favourite
feeds
ime
indicated
infection
loksabha
magistrates
mamata
mud
noble
pairs
petition
plenty
popularity
racial
restricted
secondary
sectors
shifted
silver
sinha
sur
swaraj
tales
technological
verdict
##ab
##all
##art
##book
##date
##ert
##istan
##mark
##ndar
##ode
##oured
##rance
##ret
##ssed
##tt
##ub
##una
##using
##uta
##ution
##utra
##yya
academy
airport
borders
brilliant
butterflies
causing
concentration
consist
consumers
contrast
copper
counted
customer
distinguished
draft
driving
equivalent
excitement
falling
fascism
fruit
glass
honor
hospitals
hyderabad
ignored
improving
infected
kms
lover
mantras
mausoleum
observe
occasionally
ok
operating
oral
participate
penetration
photos
promise
publication
reducing
remembered
rooms
separation
sequence
silence
smart
suggests
sum
surrender
theyve
touched
tough
treat
trip
viewed
wives
##aj
##fit
##hibition
##ith
##liance
##mad
##ography
##ph
##right
##riving
##sy
##uddin
##vable
accordingly
acres
adopt
agents
arch
attend
belonged
boundaries
bunch
businesses
characteristics
coastal
controls
convention
custom
demons
disciples
dropped
extend
fifty
fig
fruits
gathered
gulf
incarnation
incredible
inspiration
ji
jury
ladies
lectures
loan
lotus
lsb
miss
overcome
owing
preserve
prisoner
purana
regime
respected
rises
risks
ritual
rockcut
split
spring
struck
supplies
talent
tongue
transliteration
yoga
##anes
##archy
##ast
##babu
##bhai
##cc
##ctic
##dence
##dle
##eds
##eers
##flies
##ford
##gated
##hold
##kia
##lip
##lu
##mission
##nia
##nity
##ols
##oon
##owed
##pes
##pression
##rest
##storeyed
##ver
##yed
abandoned
addresses
arrive
artists
ash
bagh
balls
bihari
bones
buying
california
careful
collecting
comfortable
component
concrete
crucial
curious
cutting
describes
destroy
determine
dharma
enters
everyday
excessive
explains
handed
headed
hey
hindustan
hopes
imported
incomplete
initiative
integrity
inter
mouse
originated
perfectly
possession
prefer
presidents
print
priority
quit
rana
rao
relationships
resident
revolutionaries
rough
scholar
serial
sniffing
sovereignty
striker
superior
threw
troops
tropical
vhp
waist
worried
##ach
##ahu
##aya
##ban
##do
##eria
##ests
##form
##hy
##inal
##lated
##logical
##made
##ml
##oan
##ole
##race
##rative
##rush
##tated
##uk
##umed
abdullah
amar
arabian
attained
bikaner
blow
camp
celebrate
chalukyas
chapters
combine
consolidated
councils
covers
crop
desirable
disaster
distant
eleven
emotions
emphasis
fate
fees
fifteen
himachal
hymns
impressed
intense
karachi
lamp
legacy
limitations
listed
maintaining
mankind
mumbais
politician
postwar
prayers
privilege
procedures
pronounced
purchase
puts
repair
residential
reverse
row
sages
shapes
sing
smile
taste
thirty
tissues
tone
traits
virtually
volumes
winning
writes
##aming
##arya
##awar
##ax
##cience
##ibly
##ike
##ime
##itha
##late
##lish
##lves
##mation
##pair
##press
##ream
##standing
##ther
##unted
##uted
##vative
acceptable
appeals
bays
ceased
coach
compromise
connect
copyright
deemed
designs
driven
drums
emerge
enforcement
entrepreneurs
examine
experiences
fax
fertilisers
ft
gp
greek
guest
implemented
informed
input
inquiry
interface
joshi
ke
lands
landscape
laying
mill
mugal
oath
paying
peaceful
ph
presents
prevalent
reputation
respective
returns
satisfaction
sees
sin
singer
suri
tendency
transformation
unfair
universities
yarn
##ances
##board
##cence
##ches
##ching
##ended
##gam
##gir
##iable
##ick
##ifies
##iness
##ires
##irs
##jee
##kand
##nant
##not
##rap
##ressed
##rick
##ruti
##utor
acids
advised
bench
chose
church
colony
compulsory
concentrate
conflicts
consisted
coordination
corporate
darwin
denied
dental
disabled
dog
domain
earn
emergence
enterprise
estimates
exception
extensive
fallen
fellow
fix
geography
governorgeneral
grade
habit
improvements
ipcc
italian
ka
khalifa
lab
loans
meets
mps
naidu
ninth
outstanding
palaces
pandu
pending
perception
permits
philosophical
picked
planets
plastic
pull
quiet
ration
reaches
reserved
romantic
sage
salt
sect
shift
shop
significantly
sim
specialist
substances
sulphur
undertaken
unusual
washing
welcomed
windows
zero
##ags
##asing
##atna
##cite
##dh
##front
##iting
##lessly
##nsion
##ock
##omy
##otic
##rafts
##ren
##rily
##tain
##ually
##ush
##vate
##verse
##wes
afghan
aids
arabia
arbitration
beetles
bhakti
breasts
camels
charity
clause
corresponding
darkness
deals
desired
earned
earnings
egypt
eighth
estimate
fighter
fiscal
gap
gates
gdp
handle
imperial
imperialist
import
inscription
invested
keen
kilometers
lateral
marine
marketing
mid
mines
ministries
motilal
nepals
nitrogen
objectives
occasions
operate
orthodox
paris
peaks
prevailing
primitive
proteins
readers
receives
representing
sad
scripts
shoulder
shree
solutions
spain
stroke
summary
thin
touches
urine
wake
weekly
wherever
wore
##aking
##azi
##duction
##eshwar
##five
##gers
##graphic
##ifying
##lash
##let
##lity
##losing
##mat
##mentary
##nya
##ocation
##ola
##ood
##osed
##ox
##pted
##rence
##rowing
##singh
##sity
##ulus
adds
advani
allowance
anger
ants
architectural
attendance
behavior
bugs
census
centers
chances
chand
classification
colleges
commitment
complain
concluded
contribute
deliberately
devices
disorder
emerging
facade
freely
gopura
hatred
icc
immense
jaisalmer
kashmiri
laboratory
launch
leather
litigation
maharaja
mechanism
midst
missing
mistakes
moscow
necessity
novels
prakara
recognized
removal
sales
sciences
sen
shoulders
skill
societies
specifically
stable
storage
stupa
sunni
syed
thackeray
violation
widespread
window
wireless
##ace
##ae
##air
##ale
##built
##cre
##ctory
##ently
##fold
##free
##ild
##ilities
##ils
##nam
##pse
##sist
##tres
##tte
##wad
achievements
alcohol
allindia
apple
aquatic
architect
arrows
atal
avoided
berlin
bhai
binding
boat
bone
bush
butterfly
clay
colours
commencement
complications
counsel
creatures
cry
dal
delicate
diabetic
disposal
divisions
dying
earths
fertile
framed
hell
hurt
infinite
invented
judgment
kabirs
keeper
lays
logic
manufacturers
marks
minorities
mistake
navy
newly
notices
organizations
painted
patent
petroleum
possibilities
practised
purely
regulation
retain
rid
salvation
samples
sanction
sentenced
specimen
statue
stored
supplied
tested
tiger
ton
trend
urge
vijayanagar
##aring
##cast
##ctions
##den
##gen
##graphs
##iary
##iding
##iles
##itude
##kuta
##lal
##lender
##lers
##lessness
##macy
##ours
##point
##read
##rge
##san
##simha
##tist
##tu
##ulates
##vas
##vings
##want
##weight
##yas
actors
aggressive
allied
applies
arent
arises
bangalore
bijjala
blog
breathing
buddhism
candidate
charter
citys
consult
contacts
crazy
deccan
devotional
dimensions
disobedience
doctrine
domination
drona
fame
farmer
fever
goddesses
guided
gujarati
illiterate
immortal
incidents
innovation
inscriptions
insurance
introduce
jaya
lowest
ma
membership
moments
mystery
networks
ombudsman
options
peasants
pillar
prayag
preferred
preparation
princes
profits
ravan
receiver
requested
reward
routine
salary
satisfy
select
servants
shivaji
signal
sindh
survived
tariff
theories
thoroughly
translate
travelled
virtue
visitors
##active
##acy
##ail
##av
##aval
##aving
##bour
##cco
##eb
##era
##fying
##gies
##guard
##ica
##ig
##ired
##ister
##kes
##lands
##low
##oot
##osh
##rati
##rises
##ror
##sors
##try
##ua
##ucks
##urd
##uru
##vised
##weep
##who
abstract
advise
agenda
allotted
altogether
angels
assistant
balanced
beloved
cambridge
comintern
concepts
conquered
conviction
cooperative
crossing
devotees
disciple
employers
enabled
engineers
entertainment
epics
estate
europeans
examined
exposure
finger
giver
goa
grants
havent
heroes
hunting
impressive
investors
likewise
martial
mathematics
medicines
merged
militant
nda
octagonal
overseas
panels
participation
pigs
pray
precise
premier
premises
rains
reactions
regards
sentences
sikri
silk
southeast
sq
stability
stumps
suicide
surgery
suspended
theme
thick
traders
transformed
trials
utilisation
vague
vegetables
vivekananda
wikipedia
wouldnt
##amine
##bel
##cession
##chief
##con
##cuted
##dina
##fective
##gin
##going
##iest
##igh
##ilation
##ky
##liness
##lla
##matic
##ndant
##nge
##njali
##oked
##ots
##ou
##rand
##rect
##rol
##round
##some
##sters
##uality
##ues
##uries
##vision
##vity
##wadi
##ware
##wood
accidents
admission
adverse
affects
allowing
argue
assigned
attempted
attract
attractive
banking
barriers
biography
biology
bombs
breach
bride
buried
coalition
collector
concerns
cooking
decay
deeper
dentist
directive
dominion
drew
emotion
essence
exact
exclusively
feedback
fielding
filmfare
finish
fiveyear
flash
fodder
founder
governmental
grain
grows
harvest
haryana
heavily
immigration
influences
invest
jawahar
jews
journal
lamps
lift
liquid
lovely
mahabharath
maharshi
odd
particles
performing
pop
preceding
printing
privileges
pump
recommend
refuse
reserve
residents
resolve
rishi
rope
sahitya
san
shame
shut
sikhs
strings
suggestion
tenth
testing
textiles
tissue
tribe
unlimited
uttarpradesh
valid
vegetarian
weapon
whilst
yadav
##after
##ament
##avi
##cha
##ctors
##du
##emen
##fect
##fined
##gan
##gupta
##hadi
##hana
##indian
##ivity
##lished
##lling
##lusion
##makers
##mas
##mes
##mity
##nating
##nch
##nded
##odi
##oe
##official
##oll
##ribe
##rine
##sation
##shire
##state
##taking
##tas
##ultan
##uraan
##uts
##word
##zon
ab
acquisition
alike
amended
answered
apsidal
argued
arose
arrow
ascetic
asks
axis
battery
burnt
caliph
capture
challenges
continuing
controlling
convicted
creations
decrease
deposits
dilemma
dissolution
distances
dozen
eligible
establishing
exclusion
exclusive
fatehpur
formula
galaxies
genius
greatness
holiday
horns
hotel
inhabitants
invite
isolated
joining
justified
kannada
kingdoms
mechanical
methane
mix
mohan
mysore
nearest
occupation
passengers
plus
pollen
prevented
producer
promoting
provider
publishing
recovery
rectangular
replied
resignation
respond
satisfactory
sects
sentiment
shore
sikh
solvents
staying
steady
streams
suits
summit
theatre
un
unlikely
varying
virus
zone
##acharya
##ata
##bc
##cise
##conscious
##dated
##dles
##eva
##fall
##head
##house
##ias
##iate
##ina
##itor
##level
##lum
##mb
##oning
##ows
##puri
##quity
##romising
##serted
##sk
##two
##uni
##vali
##west
##win
##ye
acquire
aimed
aluminium
arising
armies
assent
assume
blame
blessed
bold
briefly
bulk
capability
cards
carrier
clinton
clubs
comment
confirmed
confused
consultation
continuously
convenient
courses
creates
definitely
deny
dies
dismissed
eighteen
episode
excavations
favourable
fingers
flies
fossil
frontier
funeral
generate
glacier
grey
grid
hanging
ideology
indic
intensity
investigate
jai
kuraan
los
loses
luck
mahasabha
mandapam
medieval
minerals
missionaries
monuments
mughals
narendra
necessarily
oblong
observation
openly
paint
populated
prastara
presentation
prevention
prey
prospects
ranks
ratha
rendered
resign
seed
simultaneously
slogan
smooth
somehow
sticks
strict
styles
subash
super
tends
throwing
tribunals
unemployment
urgent
usage
vachanas
visits
vulnerable
walked
warned
wave
wedding
wool
##aga
##ander
##aram
##ased
##atha
##ci
##cles
##down
##eded
##gon
##gy
##ication
##imate
##lay
##lly
##mous
##nted
##ogy
##rait
##raja
##rakash
##rds
##rics
##riction
##tya
##umes
##umped
##unters
##urable
##utation
##wara
##yat
acute
advent
allowances
anyway
appreciation
associate
attended
autonomy
bath
beaten
blank
buses
cap
capita
collectively
columbia
competent
controversial
covering
damaged
decides
departure
determination
dialect
economics
electronic
electronics
emitted
engage
firmly
focused
foreigners
forever
funding
genuine
gifts
goat
grams
hara
helpless
industrialisation
inevitably
injustice
irrespective
jsa
lifestyle
lifetime
mandatory
memorial
modest
monolithic
mount
multiple
mumtaz
muscles
nepali
noncooperation
nose
onto
opposing
owned
parasites
patience
paul
peter
plot
pond
possess
posts
precisely
promotion
prosperity
provisional
qualifications
rainfall
realistic
renamed
resort
rites
rubber
sagar
sandstone
scenario
seconds
seller
settle
sixty
stanzas
strain
strongly
submit
substance
surprised
survival
threatened
tie
treating
visual
weakness
yards
##adi
##aw
##bai
##cel
##fs
##gence
##generation
##idth
##iented
##ingly
##ites
##lence
##minate
##nsive
##nting
##oc
##oda
##ohi
##oth
##pad
##pire
##related
##rified
##rip
##rown
##rushing
##sized
##stical
##taining
##tant
##tc
##tention
##teries
##that
##ukh
##uli
##urn
##urry
##uspicious
##vance
##wear
actively
admits
ah
arrange
artistic
ashes
attributed
bangla
ceasefire
chest
chris
colorful
comfort
commerce
communicate
complained
concerning
cooperate
corporations
creator
criminals
dad
dancing
david
deer
eliminate
encouraging
ethnic
exciting
experimental
facilitate
fluoride
forgotten
fourteen
gallery
gradual
gross
gsm
heights
marry
masters
masturbation
mentions
monkeys
mukherjee
neglected
neighbouring
oxide
peasant
poland
pollutant
pregnancy
previously
profile
programs
properties
quoted
rabi
races
regardless
respects
roofs
sarat
secured
servant
soldier
spirits
statues
strictly
striking
string
sub
substitute
taiwan
ticket
unclear
versus
wildlife
##aching
##aha
##andapa
##aran
##asa
##ball
##boration
##chi
##cities
##cript
##ddin
##estation
##eur
##eys
##fic
##gn
##hini
##ides
##india
##isa
##ivated
##ively
##just
##kara
##kas
##key
##kin
##lets
##lining
##lips
##lised
##logists
##meter
##nated
##nical
##ntment
##olate
##olving
##oy
##pam
##pers
##quent
##rank
##raries
##rath
##rded
##rious
##take
##teenth
##toon
##vad
##vour
##wari
##worthy
##xed
##yi
##yu
adviser
affecting
ambitious
ardhamandapa
axial
badly
balco
bee
beneficial
classroom
clothing
cloud
conferred
convince
cosmic
creed
dated
dear
depressed
destination
disappeared
doubled
dutch
englishmen
enjoyment
ensuring
enthusiasm
entrances
essay
expanding
extends
globe
gorakhpur
governed
grandmother
harassment
hitting
hostile
inheritance
karma
khuran
lakshman
landed
lice
loves
mail
mature
meanings
misery
nearer
obstacles
offensive
ought
panchayat
partnership
payments
praised
priest
processing
pulled
ray
realisation
recording
refers
reject
repeat
rocks
rolling
rsb
scrutiny
shorter
sisters
spreads
subashbabu
subcontinent
sufi
suggestions
technologies
tenancy
tenants
tired
tulsi
twothirds
variation
vyas
ward
widow
##arity
##athy
##ava
##bles
##cking
##cover
##cracy
##dabad
##dent
##ette
##from
##fulness
##gious
##hen
##hetic
##his
##iated
##ician
##iously
##ira
##itra
##khar
##lad
##lance
##lerance
##lic
##lined
##loid
##long
##lue
##lying
##minent
##mons
##nial
##nis
##ods
##ogue
##omed
##ook
##oop
##oor
##quiring
##quisite
##rael
##rans
##riti
##rts
##sertion
##shabha
##ssing
##structed
##there
##type
##uing
##ulted
##unter
##uting
##ven
##vil
##year
academic
adoption
advisory
advocates
ahmed
alien
allies
aryan
assuming
autonomous
bail
beating
blocks
bowled
brazil
breaks
britishers
broadcast
cash
circles
civilian
cm
communists
competitive
contest
converting
crimes
delayed
deliberate
demon
depended
dev
discrimination
disinvestment
eldest
encouragement
execution
fewer
framework
fulfilled
ganesh
gather
gathering
giant
harvard
hide
implement
inclined
indies
indigo
inning
instances
interior
invitation
lac
landlords
lighting
lists
load
merit
mineral
mixing
modernisation
monopoly
monoxide
mozilla
ms
obligation
obligations
onwards
opponent
pad
panchayats
paradise
patriotism
pilgrims
pity
postal
practically
prasada
preaching
procession
punishable
qualified
rail
random
relate
replace
resource
reveal
ride
savings
scared
secretariat
serving
shiv
shock
sophisticated
spectacular
stake
storm
struggling
supervision
threats
titles
topics
touching
trains
travelling
trusted
unesco
unions
uploaded
vaccine
veena
vigorous
virtual
voltaic
wellbeing
william
witnessed
worshipped
yy
##ads
##anchal
##anishad
##arable
##ards
##avali
##bits
##bute
##chemical
##clude
##del
##dge
##eg
##endra
##fat
##gas
##gged
##gly
##gnment
##haped
##him
##hit
##hole
##iers
##iety
##ift
##ikas
##illy
##inating
##ishes
##itarian
##itary
##lion
##olly
##olve
##oping
##oud
##ounce
##ove
##path
##phere
##piration
##pit
##raits
##rass
##ribute
##rk
##rted
##sari
##suing
##svara
##tala
##tality
##tate
##tional
##tivity
##udra
##uity
##ullah
##unch
##unes
##urti
##vened
##wala
##zi
absent
achieving
alwar
announcement
appreciate
arun
bhishma
brahmans
brood
charles
chicago
chola
christianity
colors
column
commonwealth
communism
confusion
considerations
construct
crossed
crowds
destiny
diplomatic
dissolved
dod
dramatic
ease
electoral
empty
enacted
environments
evaluation
excavated
exploited
fans
feynman
findings
firstly
flew
flood
forehead
fortune
grains
grievances
historians
historically
hole
honey
hungry
hussain
indicates
indirect
instant
intellect
involve
involvement
item
iv
latin
livelihood
meals
measured
measurement
medal
memorable
modified
morality
motive
moulded
nabi
nectar
oppose
passenger
passionate
patriotic
permitted
petitions
plate
pounds
pp
pregnant
publisher
qualification
quarters
rajguru
rational
reflect
resist
roughly
rupee
senses
sharma
sixties
smell
speaks
stepped
supporters
surprising
sweets
switch
termed
territorial
thirteen
tombs
transform
trends
turkish
upset
utter
varma
vitamin
warfare
winner
##abh
##ade
##ake
##akshmi
##ared
##awali
##chand
##char
##claimed
##confidence
##ece
##ees
##eo
##ficient
##hed
##hibited
##iance
##iction
##iography
##lokas
##mandapa
##mber
##minating
##mn
##nanda
##nav
##nces
##net
##odh
##ogi
##olio
##orer
##oses
##puted
##rana
##rapped
##rator
##rew
##rier
##ruction
##rupted
##shing
##tained
##tch
##td
##tened
##they
##tile
##turing
##uin
##urated
##urbed
##vail
##vind
##vis
##wada
##wife
##xic
##xy
abraham
acknowledged
agni
allegiance
antarala
anymore
appellate
arya
aspirations
assist
aurobindo
badami
bases
basu
birthday
bleeding
burn
calligraphy
campus
capitalism
chennai
clinic
clinical
coat
commissioned
communications
concentrated
congressmen
consensus
convenience
curved
dangers
debt
declares
defects
define
demonstrated
desires
draupadi
empires
exceeding
expand
expense
expertise
fascist
filling
fortunately
gateway
gentlemen
ghosh
goodwill
governors
grasshoppers
hemisphere
holes
holidays
host
humayun
inherent
insight
interact
interview
islamabad
kg
lecture
likes
logical
lucky
luxury
majesty
manufactured
micro
miniature
monkey
muscle
mythological
notion
occupy
officially
organising
ornaments
painful
penance
pilot
premchands
preparing
presided
princess
privatisation
profession
proves
pupils
rainy
rebellion
registration
remind
reserves
rhythm
sanctuary
sangh
seated
secularism
seldom
shipping
shooting
socially
sometime
stuck
sung
supports
surat
surveillance
sweden
talas
tale
targeted
tatas
titled
tournament
trader
traditionally
translations
trophy
tulsidas
undertake
valued
versions
wages
wash
websites
wk
wo
##alas
##aning
##ank
##arted
##atra
##bilities
##cating
##cion
##cist
##dies
##ea
##eering
##ela
##ement
##employed
##ental
##ficial
##gad
##graphy
##guards
##hattisgarh
##iculate
##ience
##ilt
##ines
##irst
##khand
##kutas
##logist
##marks
##mc
##mo
##mp
##nand
##ndance
##odied
##onest
##page
##part
##perate
##pus
##rama
##ritic
##sala
##spect
##sphere
##ssary
##tling
##tration
##triya
##uda
##ughter
##umps
##urb
##utas
##when
##while
##wide
abcl
accuracy
administered
adventure
agitation
agreements
annually
annum
apparent
ashok
assets
bachhan
bal
bhushan
breath
brick
calf
capitals
caterpillars
chandigarh
chaos
climatic
coke
commit
completing
counts
cpi
cult
depicted
deserve
disputed
drinks
ear
earthquake
ejaculation
evidently
excavation
exile
failing
files
firing
football
forts
funny
gautam
gender
genotype
ghana
grandson
hans
harem
hilly
inc
integral
intensive
intervention
introducing
kathak
krishnas
kunti
ll
lung
mahavir
mahendra
managing
memories
microsoft
niches
notable
pant
passport
pension
pig
possessed
proceeded
productivity
profound
prolonged
protecting
ranging
rays
recognize
reflection
removing
repairs
republican
resigned
retreat
revenge
salaries
sall
sample
sentiments
sewage
simon
solvent
sperm
sphere
spin
submarine
tasks
telugu
temperatures
thorough
thrust
trunk
umpires
unfortunate
vadya
viable
##ading
##agged
##aka
##alam
##atch
##athi
##autical
##awab
##away
##bers
##bes
##called
##ciding
##closed
##cription
##cus
##dal
##deen
##east
##gradation
##gration
##hips
##ief
##igious
##imming
##ived
##ivism
##lick
##llo
##losure
##lting
##mani
##metrical
##mukh
##muslim
##oking
##olation
##orned
##osity
##pion
##plies
##po
##posed
##pprove
##pressed
##rection
##rel
##rise
##rta
##rting
##sided
##sor
##sses
##tachment
##uations
##uja
##ulsion
##versary
##vic
##vict
##visible
##voked
##wati
##yal
accurate
agent
altered
ambassador
anand
angel
anxious
appetite
bazaar
behave
boards
boss
broadcasting
calm
ceiling
celebration
challenging
characterised
chariot
claiming
clan
cleaning
cleared
codes
colonies
compete
connecting
connections
constitutes
constructive
corrupt
coverage
crash
crying
decoration
dedication
defend
dense
deposit
devnagari
directory
dismissal
dispersion
dominated
dravidian
engineer
essays
estates
excuse
exercises
fasting
fears
fibres
fond
governing
guardian
handled
harder
heating
hollywood
honored
humble
hybrid
ideological
impartial
impose
influential
innovations
innumerable
insisted
interference
iranian
jobcentre
jump
kauravas
kyoto
largescale
larva
leaf
legitimate
liberties
lit
litres
marriages
maternal
math
michael
missed
misuse
moderate
molecules
monitor
mosques
moths
mould
narrated
nicobarese
oxford
penalty
phenomena
physically
pleasant
pockets
poison
portal
poultry
preference
prem
prestige
preventive
proceed
proclamation
proportions
pulse
pushed
rajiv
reactionary
rebels
reconstruction
remedy
reproductive
revival
rigid
riots
sacrifices
sandhara
saving
seasons
shining
shopping
sixteen
slight
solely
sorry
stolen
subtle
succession
suppose
surely
synthetic
systematic
tanks
tender
tower
traced
tragic
upload
venture
wheel
wins
withdraw
##aged
##aihi
##ained
##alt
##anda
##ave
##bre
##bulatory
##due
##eem
##ends
##erate
##fill
##fining
##fly
##force
##gles
##government
##gular
##hai
##half
##hiya
##iating
##idence
##ihar
##ii
##ino
##inous
##ioned
##itative
##judice
##ko
##kti
##lour
##mented
##mers
##nah
##nee
##nish
##odha
##ointed
##oist
##oms
##owned
##oyal
##pace
##pired
##play
##poration
##ppan
##pura
##rah
##rats
##rbal
##riya
##scope
##semble
##shan
##spection
##tches
##tent
##tility
##trakuta
##tric
##tus
##uch
##udi
##ugal
##ught
##ules
##under
##uns
##ushed
##vaded
##vadi
##vey
##vyas
##welling
##xt
##zy
abolished
adjournment
advertisement
allahs
allegations
associations
banaras
bears
beetle
bid
bloc
brotherhood
buddhists
bull
cbi
certificate
cheaper
chicken
coins
commentary
compounds
condemned
conservation
contents
contributions
conventions
costly
countrys
cuisine
dawn
designated
differently
disorders
donation
driver
duryodhan
earning
error
eve
explaining
expressions
extinction
fantastic
farm
favor
fee
finances
finer
formally
frequency
fundamentally
ganesha
garbage
goals
grandfather
granite
handling
hate
hiv
hypothesis
ignorance
ignore
imagined
indication
injurious
intervals
invariably
ireland
jahan
jains
jayalalitha
jobseeker
junior
kabeer
kangra
kapoor
lasted
lasting
legend
limbs
locally
locked
losses
mathura
mayor
meerut
merchants
metals
missile
naked
narrative
nationhood
neglect
neighbourhood
parental
parishad
participated
performs
pesticides
philosopher
polity
posted
preside
princely
producers
professionals
prone
protective
purity
pursue
qazi
ranges
recovered
rely
respiratory
reveals
rig
sahib
saran
seas
seeks
shoot
shots
smog
spinning
stretch
stupi
sufficiently
suited
surfaces
tackle
tactics
tennis
thermal
theyll
thighs
todays
unprecedented
visitor
wed
wet
winds
writ
##aches
##acing
##airs
##anas
##andi
##aris
##atan
##cca
##ceived
##chool
##crats
##cribed
##cutor
##dir
##ean
##eding
##ell
##eological
##erent
##eshi
##esvara
##fa
##fer
##gant
##gical
##giri
##gression
##hala
##hes
##hield
##iental
##iot
##ipuram
##irm
##izes
##lave
##litation
##lite
##lo
##lometer
##minded
##more
##nking
##noon
##nowledge
##ntly
##nu
##oi
##omas
##onious
##onks
##oped
##parts
##pets
##placed
##pp
##qualified
##quipped
##raha
##rary
##rata
##regator
##rish
##rolled
##rome
##scribing
##third
##thy
##tics
##tories
##ubble
##udh
##uj
##ull
##umn
##unity
##uo
##ussy
##vansh
##vant
##vating
##vial
##vur
##vya
##wami
##wards
##yak
##yam
##yer
abuse
accomplished
adapted
alehi
alter
apex
attracts
australian
austria
bairam
beneath
bhagirathi
bhopal
blowing
boom
brains
bullocks
calculated
childrens
choosing
civilised
classic
coarse
coin
communalism
cooker
correspondence
creativity
creature
crickets
crude
custody
da
dances
dates
debates
demanding
depletion
deprived
descriptions
desktop
developmental
devoid
discourse
discretion
disposed
dividing
ellora
enforce
enjoying
evidences
exceptional
excluded
exploration
expressing
extending
fielders
finland
flesh
fuels
furniture
geetha
gifted
graduate
guidelines
gum
hazarat
highway
ib
inadequate
incorporated
intellectuals
intermediate
invasion
iraq
kabhi
leftist
looms
lungs
magazines
magnificent
mainstream
manager
martin
mechanisms
meningitis
metre
mighty
mounted
nervous
nominal
offender
opens
organise
outward
paddy
patronage
pearl
persistent
pink
plaque
plea
ponds
pool
poorest
praying
preached
presently
preventing
procedural
prohibited
prophets
providers
publications
publish
quest
rani
recessive
reduces
referring
register
replacement
reporting
retained
rival
sacrificed
scores
seized
severely
shahjahan
shankaracharya
shortly
shukla
simplicity
sind
skilled
sleeping
solving
stadium
stays
stops
struggles
subsidiary
suburban
surplus
sustained
symbolic
theirs
theyd
threshold
translator
uncertain
unhappy
validity
voices
warriors
wasp
watt
youd
##aan
##aemia
##ager
##ains
##ajurveda
##allahu
##alman
##amed
##andava
##aq
##asure
##ately
##ause
##az
##bled
##bon
##chant
##che
##cluding
##core
##cratic
##cule
##darshan
##deo
##dited
##een
##ele
##esto
##eth
##gates
##genic
##gle
##grade
##griha
##haran
##hops
##hta
##htab
##ications
##ilding
##inished
##ipur
##iss
##ius
##lis
##litary
##lived
##metres
##minated
##mining
##nga
##note
##oit
##ologist
##onal
##onia
##osion
##ously
##pan
##person
##pi
##pite
##ploit
##ponsored
##president
##ptive
##racy
##raint
##rani
##rised
##rition
##roduce
##rons
##rries
##rusted
##sal
##serts
##spiring
##ssel
##stitution
##tary
##tected
##tilised
##tirement
##tock
##tone
##tones
##tva
##ude
##ui
##uiries
##ulana
##ulary
##ulla
##ulously
##unar
##unction
##urya
##vailed
##vators
##vening
##xploit
##zabad
##zation
##zeb
##zle
admiration
alarm
ancestors
approached
arid
asias
assumption
assurance
astonishing
atomic
authentic
aviation
bali
barely
beach
bees
beside
blessings
booklet
borne
capitalist
catastrophe
childcare
clever
collapse
compelled
complexity
computing
confident
confluence
contracts
conventional
conversations
cousin
crew
crushed
dc
deed
deficiency
demonstrations
density
diabetics
diagnosis
disappear
discharged
distinguish
divides
donor
dvarapalas
effected
elders
elevation
englishman
envisaged
extensively
fault
fielder
finest
fold
follower
forbidden
fore
foundations
friday
guaranteed
hajrat
hereditary
humidity
inherited
inscribed
interim
intimacy
jagaran
jagran
journalists
kindness
kuta
lala
liaison
license
loyalty
magnitude
manipur
margin
marxist
maternity
mathematical
mating
maya
mens
merges
momentum
monitoring
mosquitoes
myth
oneday
parsi
parvati
peripheral
phases
plantations
polls
popularly
ports
predict
proceeds
promises
readily
reception
refuge
relieved
rendering
requirement
resting
routes
sailed
scenes
searching
shia
spontaneous
stocks
strengthen
sunday
suspected
synthesis
tape
tenure
tolerate
tomorrow
trace
traveling
tribute
umbrella
undertook
unexpected
ups
upwards
ve
viewers
vivekanand
vivid
wales
ware
wiki
wished
wonders
wow
zeal
##1
##2
##3
##£
##°
##±
##μ
##ः
##अ
##आ
##इ
##ई
##ऋ
##ए
##औ
##क
##ख
##ग
##घ
##च
##ज
##ञ
##ट
##ठ
##ण
##त
##थ
##द
##न
##प
##ब
##भ
##म
##य
##र
##ल
##व
##श
##ष
##स
##ह
##ा
##ि
##ी
##ो
##চ
##দ
##ন
##ব
##ভ
##র
##ষ
##স
##া
##‘
##“
##”
##⁄
##€
##☺
##☻
##♫
