[PAD]
[UNK]
[START]
[END]
!
"
#
$
%
&
'
(
)
*
+
,
-
.
/
0
1
2
3
4
5
6
7
8
9
:
;
<
=
>
?
@
[
\
]
^
_
`
a
b
c
d
e
f
g
h
i
j
k
l
m
n
o
p
q
r
s
t
u
v
w
x
y
z
{
|
}
~
¡
£
©
°
±
×
æ
ø
đ
ı
ł
ə
ʿ
α
γ
ε
ζ
η
ι
κ
λ
μ
ο
ρ
σ
τ
ا
ة
ت
ح
د
ر
س
ك
ل
م
و
ي
अ
आ
इ
ई
ऋ
ए
औ
क
ख
ग
घ
च
ज
ञ
ट
ठ
ण
त
थ
द
न
प
ब
भ
म
य
र
ल
व
श
ष
स
ह
ा
ि
ी
ो
চ
দ
ন
ব
ভ
র
ষ
স
া
‘
“
”
•
⁄
€
→
∶
⌘
☺
☻
♫
the
of
and
to
in
is
##s
that
for
it
this
you
on
was
as
are
with
be
not
by
or
he
from
his
have
at
but
an
they
which
has
##ing
can
if
##ed
we
one
will
all
there
your
their
##d
when
so
##a
had
##ly
its
about
were
more
india
other
who
also
no
what
##i
them
people
these
time
do
##e
only
been
may
some
out
like
##t
up
new
##r
##er
after
any
##n
##y
two
should
would
could
world
government
into
than
then
her
because
him
first
many
rrb
lrb
get
indian
now
years
over
state
my
most
very
even
##al
##es
use
our
name
how
##l
made
such
work
make
she
life
where
##h
##o
##m
see
list
before
said
under
file
used
help
way
between
those
year
country
information
just
war
day
want
here
called
right
during
national
must
long
did
well
take
being
place
against
set
through
me
court
us
category
know
part
go
##k
does
number
language
need
system
man
power
while
##an
three
states
cannot
back
much
same
re
muslim
own
##on
great
different
error
hindi
good
every
open
found
change
end
per
both
muslims
show
down
israel
each
##c
whether
another
islam
last
law
important
##g
##u
##p
free
##ers
without
political
house
high
please
however
children
left
network
given
old
find
available
public
come
failed
think
history
going
don
##ic
child
film
case
president
##ment
things
##ting
home
too
give
##ation
local
social
policy
text
support
again
water
##le
british
american
little
united
why
type
##ar
##ion
whole
service
main
came
##or
according
position
group
four
party
##able
minister
days
still
got
start
later
small
form
say
general
god
person
known
second
always
become
south
##th
look
key
example
put
school
order
##b
city
never
##ity
east
##te
##ra
create
##in
view
book
since
congress
started
times
next
terrorism
human
000
river
##ness
page
air
##us
user
data
islamic
religion
large
##ry
due
women
using
##ya
##ive
side
middle
problem
around
family
few
west
##um
among
hindu
able
date
something
##ism
already
really
video
america
services
area
council
today
##tion
parliament
##rs
took
##re
done
health
members
##0
full
international
body
means
away
period
changes
best
files
##en
window
within
##ble
based
less
##na
complete
went
control
read
development
off
words
though
##ted
##f
address
age
constitution
english
image
process
fact
men
million
might
possible
act
action
related
default
item
five
##ia
point
##1
problems
word
device
message
non
common
provided
became
level
taken
folder
far
##ce
north
better
10
following
once
special
food
religious
##ne
##st
##man
cent
current
question
try
value
often
##ist
working
countries
select
university
##ies
al
present
young
security
search
keep
district
##ling
further
##ate
making
contact
others
server
size
sure
run
##2
money
email
having
says
##ous
union
original
singh
king
##ha
temple
##la
enable
##ent
account
office
add
himself
love
akbar
true
western
yet
central
##ur
century
##ge
##nt
line
matter
thing
ve
death
display
check
selected
story
application
foreign
live
##se
until
play
password
police
##ri
##ty
face
class
##ma
member
##ful
let
##6
delhi
url
##id
##ta
save
together
move
education
thought
getting
months
settings
itself
freedom
##5
ask
rights
##am
etc
##z
big
google
pakistan
along
including
mumbai
connection
hand
link
tell
##x
##ary
computer
article
culture
literature
##less
either
mind
written
top
media
movement
rule
early
mr
course
seen
head
##ure
population
parts
prime
version
enough
israeli
##ka
##at
several
call
report
society
##as
news
percent
self
actually
third
half
military
role
##is
industry
20
care
receive
themselves
##ch
##sh
chief
land
modern
##ts
doing
future
books
business
space
woman
front
thus
##ter
reason
##est
therefore
kind
sabha
nothing
source
economic
##da
effect
result
community
believe
near
pipes
europe
note
taking
least
lot
cricket
region
understand
comes
major
told
##3
almost
earth
past
##ti
mode
phone
laughter
asked
color
comment
living
certain
access
palestinian
arab
heart
code
various
enter
##8
cases
##7
anti
boy
close
real
clear
plan
above
author
committee
presented
team
week
sanskrit
upon
ever
needs
##it
11
built
rate
##pur
short
choose
gave
anything
##9
force
bill
delete
light
stop
ago
writing
##4
perhaps
six
update
instead
latest
research
created
pay
total
advice
game
authority
iraq
software
soon
web
areas
considered
department
provide
single
nature
towards
##led
continue
till
write
##hi
army
groups
violence
12
mobile
places
##de
##ious
languages
flag
forces
project
required
brought
feel
music
click
cause
company
ram
test
usually
subject
##ging
##ve
supreme
##v
daniel
details
income
mother
##il
province
china
father
send
idea
ll
field
ways
outside
born
copy
talk
am
press
low
makes
reading
began
15
technology
behind
justice
production
personal
sent
status
capital
command
science
setting
son
unable
famous
necessary
terms
##ial
rs
##ck
post
##ian
audio
leaders
played
##w
sometimes
administration
iran
knowledge
white
issue
pradesh
##ant
asia
civil
claim
earlier
islamist
blood
center
looking
allowed
turn
wrote
lost
quality
red
invalid
rather
session
someone
##age
##et
##land
growth
wrong
longer
##j
global
march
won
##ally
##ng
building
directory
hands
hard
leave
environment
established
goes
peace
30
internet
##el
allow
publication
task
##ors
decision
africa
entire
named
term
##ence
path
running
simple
terrorist
wanted
art
particular
strong
##va
courts
published
whose
certificate
everything
decided
experience
gandhi
passed
bring
learn
##ized
generally
ganga
held
remove
##ir
questions
although
developed
topics
wall
works
##ating
sea
##ding
screen
##ize
especially
temples
accurate
online
sense
majority
ancient
leader
sound
difficult
england
rules
series
include
output
##ning
mailing
##men
goods
month
##ping
powers
survey
former
ground
##ists
bad
return
character
inside
interest
style
types
windows
##li
poor
conflict
font
hours
job
obama
quite
nepal
private
subscribe
##ated
energy
likely
match
section
european
eyes
mail
similar
16
answer
changed
meeting
format
increase
integral
template
##ji
14
politics
below
black
title
bank
popular
average
bengal
disease
forwarded
friends
recent
tried
democracy
forward
hindus
progress
site
centre
drugs
institute
accept
##ped
trade
assembly
desktop
location
mean
deal
nation
matters
trying
##ct
activities
capacity
conditions
configuration
london
natural
election
sex
evidence
transport
50
active
menu
##sed
attack
background
import
krishna
supported
ball
normal
##line
program
sign
financial
higher
step
didn
##ring
basis
cultural
runs
##han
100
messages
nor
situation
study
industrial
##tic
follow
options
takes
unknown
users
village
##nce
benefit
lives
legal
oil
##ut
birth
finally
notes
numbers
reposted
road
greater
shown
website
beginning
comments
parents
room
speech
alone
disabled
houses
kept
khan
october
range
25
cost
icon
independence
lead
lord
##ss
begin
bush
consider
names
build
evolution
ideas
lok
organization
keyboard
applause
commission
stories
##ke
limited
night
park
##kar
coming
official
seven
base
chrome
poet
record
yes
##der
april
issues
jewish
basic
else
individual
##ration
sun
felt
installed
memory
ministers
rajasthan
responsible
18
content
market
relations
agreement
ali
egypt
saw
wife
##red
lower
training
added
car
green
round
success
importance
islamists
method
stage
##les
deep
difference
led
democratic
forms
giving
demand
doesn
nations
opinion
##ni
##sing
fire
increased
street
install
nearly
across
gives
operation
september
entry
gets
points
##ged
paid
share
expected
extension
items
particularly
serious
standard
desert
##tes
chandra
print
cell
object
saudi
specific
thinking
volume
##ot
january
meet
tab
views
##ties
empire
followed
paper
practice
received
subhas
##tive
automatically
beautiful
easy
previous
scale
hold
industries
july
maximum
meaning
tonnes
wide
button
##cing
browser
connect
except
option
reach
scheme
##ised
fear
remember
november
cities
remote
washington
hope
amount
contains
eastern
##tor
governments
shows
telephone
weeks
##ded
animals
edit
event
fort
product
roy
cut
june
##ps
board
disk
id
islands
kingdom
##way
appear
continued
died
beyond
needed
pollution
profile
structure
probably
rest
##cy
independent
met
solar
described
influence
results
##ish
##son
charge
hour
laws
model
property
trial
turkey
turned
pattern
powerful
##har
accepted
effects
spread
star
voice
##ization
afghanistan
remain
##ram
elections
minimum
treatment
apply
manager
parties
purpose
revolution
shall
steel
wants
wikipedia
cave
drive
eight
fast
nuclear
review
students
visit
##ance
##nd
##ns
load
offer
protection
reasons
tax
efforts
included
specified
##ga
##mi
happen
width
workers
college
leading
plants
##ro
kashmir
northern
##ll
input
saying
stand
valid
becomes
direct
letter
respect
track
attention
carry
currently
exist
box
cells
germany
panel
thank
values
##ise
2007
happened
knew
muhammad
##ai
##ul
13
everyone
fight
species
table
40
americans
batsman
caused
credit
criminal
recently
struggle
##00
##ine
document
prince
schools
additional
authorities
offline
release
rise
script
truth
download
housing
reached
response
stone
circumstances
external
faith
final
involved
picture
2000
2001
successful
##ad
##ities
enabled
indians
palestinians
starting
##and
##ned
##q
citizens
existing
produced
2006
conference
economy
leadership
looked
ones
sort
carried
description
heard
iranian
noise
price
tv
##ay
activity
applications
approach
directly
extra
killed
player
poems
##ms
##ries
arabic
cold
connected
friend
learning
machine
span
tagore
##to
##ved
lines
moon
officers
risk
steps
weight
##ner
24
december
host
insects
intelligence
links
opportunity
policies
square
##ments
association
attacks
elements
executive
judge
management
nehru
shah
##ran
2008
bombay
direction
empty
george
growing
height
island
male
material
radical
whom
provides
##ba
##ton
declared
formed
##co
##ical
column
door
moment
##di
calcutta
loss
secretary
speak
statement
##un
2005
60
gone
hamas
pages
republic
york
##ds
##ions
august
february
jews
terrorists
larger
pressure
sector
seems
thousands
2003
airport
bit
dead
female
festival
governorate
minutes
##bly
concerned
events
hospital
mark
uk
daily
largest
library
organisation
selection
speaker
##war
disable
happy
officer
port
tamil
##ana
##res
bar
notice
theme
youtube
benefits
complex
director
elected
fall
feeling
gas
uttar
wish
##om
##ving
calls
couldn
planning
plant
quran
situated
buy
calendar
enemy
expect
join
parliamentary
photo
useful
arabs
award
changing
doctor
requires
safe
##si
agriculture
focus
indeed
mahal
none
regular
speed
2002
movie
physical
resources
studies
temperature
travel
##ak
condition
ensure
feed
koran
latter
proxy
radio
actions
decide
immediately
reality
safety
spirit
##rd
costs
poetry
seek
tool
##go
##ible
##ny
##ok
apart
construction
creating
leaflet
mouse
ready
saved
spent
##ze
agree
removed
17
appeal
baby
christian
late
stay
existence
generation
pass
protect
fit
governor
milk
traditional
##name
campaign
card
john
length
officials
persons
staff
standing
crime
exists
export
ii
##dy
##ee
japan
wait
##nath
affected
opening
procedure
southern
##ened
##pe
##tors
##tra
develop
element
fully
morning
moved
proper
race
returned
standards
##ie
21
anyone
britain
custom
damage
figure
fundamental
goal
images
lakh
printer
products
railway
ten
##im
brother
completely
legs
shape
thousand
worked
##sion
associated
co
completed
hear
programme
##bar
2004
believed
break
chance
draw
drug
france
french
highest
interests
internal
kids
lake
mainly
medical
otherwise
religions
string
teacher
whatever
writer
centuries
mass
offered
sides
##ip
raj
systems
unless
appointed
effective
features
institutions
map
partition
tradition
actor
games
impact
produce
regions
remains
request
responsibility
station
##pa
##per
die
frame
holy
opened
playing
resolution
separate
target
##my
constitutional
equal
happens
includes
jail
looks
mahabharata
raised
reports
simply
unique
videos
##cted
##ves
accused
announced
battle
billion
cabinet
easily
lies
ministry
talking
##ite
bold
coal
corporation
cover
dance
effort
facilities
feet
log
notification
##ations
##ls
addition
border
channel
closed
disc
mandapa
mount
opposition
package
placed
rich
terror
##ue
allows
animal
dream
heavy
judges
quickly
soviet
toward
chinese
instance
joined
learned
unit
vote
##sm
lived
missing
principles
threat
##end
correct
legislative
login
scientific
significant
sources
strength
##cent
##rate
##tle
##ulate
climate
electricity
failure
specify
weapons
yourself
decisions
explain
interesting
label
seem
win
##os
agency
despite
exchange
letters
methods
soul
sri
warning
##ari
##ered
agra
companies
divided
fixed
hit
increasing
rajya
##ver
23
discussion
fine
matches
reference
throughout
understanding
##ese
##uring
australia
basava
exercise
huge
manage
prevent
reduce
welcome
manner
moving
upper
watch
##light
jerusalem
ubuntu
19
22
challenge
crisis
era
families
kumar
supply
##em
##vi
armed
arms
client
mentioned
regime
tenant
##ah
##ction
##isation
aid
bottom
covered
duty
preferences
switch
tree
walls
##ons
characters
context
dr
permission
philosophy
primary
##ably
##pt
count
debate
mostly
pictures
town
tube
##sa
##za
##zed
avoid
critical
http
maybe
moral
neither
twenty
victory
##hip
##ld
acts
compensation
eye
motion
newspaper
sites
television
##ore
##ral
analysis
decades
differences
grow
identity
militant
sheep
upgrade
affect
confidence
foundation
normally
pre
rivers
waiting
##hy
##ler
##ool
degree
examples
husband
installation
joint
plugin
punjab
26
adopted
cd
initial
kabir
listen
seemed
unity
##ks
##lation
##mer
##ory
200
defence
domain
double
editor
fund
turkish
causes
chromium
complaint
dark
gnome
index
museum
nine
partner
rama
taj
translation
vedic
##ans
##ual
advanced
bin
chairman
cross
de
gaza
japanese
keeping
keys
##ator
##izing
##ja
crores
fields
jihad
mission
plans
presence
reader
speaking
units
##wan
articles
besides
clean
fighting
german
individuals
knows
lack
proved
##bility
arabia
county
function
greatest
israelis
mountain
palace
planet
theory
traffic
asian
budget
claims
clearly
forest
interface
iraqi
master
poem
properly
ramayana
revolutionary
stars
##od
##ome
attempt
daughter
enjoy
judicial
kinds
meant
potential
remained
seeing
visible
##ard
##ca
##ile
##que
##tation
##ud
appears
broken
buildings
cancer
design
employment
released
reported
sentence
stream
tasks
vedas
vishnu
##ular
becoming
brain
contain
extent
fair
surface
1999
blue
entered
garden
horse
premchand
ruling
worth
##ide
compared
consumer
creation
expression
helped
laid
lose
prepared
reduced
relationship
##ol
##rated
##sive
authentication
commercial
concept
guide
mahatma
outer
sky
student
successfully
##ology
caste
decade
dialog
hide
mosque
summer
urdu
##ham
##nts
##ray
##tha
dynasty
equipment
levels
nokia
oh
uses
variety
warming
worship
##ag
##ap
##bs
##cal
accounts
contrast
paul
players
saint
taliban
temporary
weather
##ric
##rt
danger
historical
located
ocean
poverty
royal
song
##up
achieve
appropriate
emergency
girl
issued
limit
ordinary
patient
##ings
aim
contents
david
gods
illegal
impossible
marriage
married
permit
shared
store
##ited
atmosphere
diseases
distance
improve
lock
nhs
storage
##ency
com
defense
domestic
iron
myself
parent
restore
showed
solution
28
carbon
charges
facts
gold
imagine
occurred
root
starts
via
annual
architecture
argument
bhagat
collection
crore
fell
fellow
hundred
inner
kill
labour
measures
mughal
saddam
secure
territory
vision
allah
appeared
beauty
biggest
developing
essential
factors
smaller
sync
unicode
wind
worse
##ain
##ara
##ber
##ification
##ium
bjp
camera
doubt
eat
finance
fish
leaving
understood
##aries
##istic
1998
2009
answers
bharat
edge
expressed
millions
regard
swami
topic
valley
##garh
##ley
agreed
babies
bus
displayed
division
filter
hearing
scientists
stopped
teeth
universal
##ify
##ins
##ses
agricultural
banks
bringing
buddha
career
helping
netaji
older
regional
terminal
tools
updates
bose
choice
institution
killing
operations
performance
positive
registered
sleep
songs
trust
veda
##cks
##ice
##ki
##ulation
applied
belief
configure
distribution
filled
hair
mountains
principle
raise
vimana
aged
deleted
depends
introduced
materials
multiple
penis
repair
rural
sexual
silence
spiritual
syria
touch
##ability
##ep
dangerous
devices
exactly
gandhiji
permissions
quit
sending
##raj
##ress
breast
federal
floor
jobs
leaves
maharashtra
offers
rock
ruled
seconds
signs
stock
trash
treated
##das
##ming
##rn
27
affairs
destruction
highly
medium
offence
photos
prices
priority
showing
shrine
vast
zoom
behaviour
classes
engineering
forum
funds
interested
suddenly
vajpayee
wage
youth
##ition
##use
connections
couple
eggs
ended
figures
flow
phase
reply
violent
wicket
##ger
##her
##ier
##ose
##une
delay
evening
gain
hidden
investment
jurisdiction
pain
pillars
proposal
require
shortcut
straight
subjects
tribunal
##nal
80
archive
communication
dictionary
evil
forced
healthy
landlord
league
mahadevi
merely
soldiers
stated
##do
##ff
##fication
##hu
##one
##oo
calling
chapter
ends
gui
mouth
professor
recommended
restart
signed
widget
##ets
##gate
##me
##med
##ulated
concern
entirely
folders
net
nobody
permanent
sessions
sitting
teach
##ery
##hood
##ini
##time
bills
colour
contacts
database
dollars
establishment
films
finds
flight
girls
gujarat
hall
piece
preview
##ening
##king
##wa
ability
african
ahead
arrested
bengali
branch
factor
functions
grew
instrument
marked
origin
provinces
weak
whereas
##row
actual
auto
badruddin
duties
encourage
hardly
spot
urban
32
demands
happening
holding
isn
novel
railways
raw
secret
streets
trading
##ight
##rat
##side
1996
brief
documents
imperialism
persian
slow
startup
trees
usual
villages
##rew
##tan
##vation
achieved
ad
allowance
committees
driver
extremely
forget
heat
introduction
mere
qaeda
sub
suicide
thoughts
usage
##lo
##sk
90
appointment
burning
christians
convert
false
ganges
prophet
relief
replace
strategy
troops
##ang
##bad
##day
##ik
##rous
amendment
balance
chosen
express
hussein
mental
minute
moderate
orders
prison
proposed
remaining
row
sat
scholars
soft
uri
##ute
block
explained
faces
followers
founded
grown
launch
lists
representative
somebody
universe
##ala
bed
begins
bhavan
boot
certainly
emperor
finding
homes
journey
km
markets
noted
regarding
senior
sets
sugar
##ash
##bi
##ering
##ics
##late
##zing
abu
battery
inspired
saving
schemes
taught
charged
coalition
entitled
establish
fourth
genes
peoples
proceedings
properties
spend
www
##af
##atic
##cious
##ified
##ig
##mal
##ura
1997
administrative
aware
backup
bodies
busy
canada
escape
hamachi
organizations
palestine
relevant
strike
technical
verses
##ern
##iya
##ron
connecting
cooperation
corner
drop
enemies
ideal
ill
managed
measure
packages
projects
rain
refused
shift
spoke
stands
walking
##ade
##box
##cate
##ey
##fully
##ising
cancel
extended
hundreds
liberal
lots
provisions
records
soil
suggests
symptoms
virtual
yellow
##ama
##ates
##ria
##set
##ship
appearance
audience
bihar
citizen
cotton
deaths
legislature
rose
russia
skin
stones
suggested
tag
vertical
visiting
vital
##ten
##ury
##ys
1948
29
500
abdul
addresses
app
cursor
defined
follows
header
hot
layout
legislation
maintain
referred
##by
##ched
##gar
##gation
##io
##pad
##ree
##ures
##vara
##ward
1980
1993
70
ca
drawn
estimated
extensions
fifth
immigration
license
murder
owner
providing
seats
william
##nes
##teen
communist
eventually
feelings
helps
improved
lay
linked
ruler
tea
tells
twice
visited
wear
##bed
##ces
##cp
##rain
##sha
1990
2010
alternative
assessment
attitude
camel
controlled
defeat
educational
fill
formation
guru
html
largely
lebanon
machinery
operating
pension
purposes
reasonable
serve
suitable
walk
##cs
##ess
##jan
##logy
##osis
alchemist
bachchan
bound
brahma
cache
communities
consists
detailed
devi
opposed
prasad
sudden
whenever
winter
##book
##iate
##ily
##lay
##ural
anyway
attacked
automatic
bookmarks
celebrated
dealing
drawing
dry
exit
fuel
guidance
handle
hinduism
launched
objects
observed
organisations
provision
represent
stood
summary
##ens
##lt
##unt
accident
administrator
agencies
artist
behavior
bomb
carefully
carrying
expansion
golden
intellectual
outlook
productname
prominent
strange
waste
##cle
##fied
##hara
##ution
adding
asking
containing
criticism
discuss
equally
facing
mahabharat
models
passing
patterns
perfect
prove
quick
rulers
sons
##aya
##ced
##ndra
##op
2012
31
airports
civilization
committed
degrees
environmental
feature
firm
fresh
grounds
intended
judiciary
movements
politicians
sufficient
##10
##are
##our
##ull
approval
arrived
cars
childhood
church
competition
definition
desire
falls
jain
james
jute
kings
networks
obvious
principal
resource
served
slowly
sought
st
suggest
teachers
tons
totally
##city
##ft
##hal
##lan
##mon
##sts
##table
##ured
##wal
advantage
arrest
belong
bridge
enables
everybody
extreme
farmers
hind
insect
listening
opportunities
opposite
putting
sounds
trouble
willing
##ab
##pal
##shed
attribute
bear
devotion
explains
finished
goals
mohammed
prior
secular
shop
sir
skills
zone
##ians
##room
1947
consequences
cup
customs
equality
grant
horizontal
identified
indicate
instructions
insurance
islamism
listed
marble
perform
permits
rename
sell
tour
##dh
##down
##gh
##lin
##ture
1950
ages
alliance
aspect
attached
converted
erdogan
imports
org
permanently
poets
ratio
seat
sister
##20
##ids
##ris
babu
branches
complaints
dedicated
egyptian
hill
historic
sick
signature
suffering
tenants
thereby
##fy
##oring
##uation
45
absolute
amitabh
bug
chemical
conduct
diplomacy
drag
duration
engine
marathi
mid
payment
pixels
rates
remarkable
roof
socialist
unfortunately
##ada
##ching
##ever
##ple
##pressed
##ung
##work
1991
bowler
brings
consideration
continues
deputy
diabetes
flowers
identify
ignored
imported
laden
liberation
loading
organised
possibility
pure
quiet
represents
season
statements
strategic
subhashbabu
victim
wings
##ill
##las
##rit
##uri
75
batting
dam
depend
flat
immediate
plays
presidential
relation
representatives
sit
truly
worry
##ites
##ong
2011
aspects
beings
cair
capable
conclusion
crown
errors
hence
joy
occur
optional
performed
protocol
sacred
shell
statistics
suffer
tehran
telling
territories
texts
victims
wars
##be
##culation
##he
##lip
##nagar
35
assistance
birds
broad
cloud
concerns
designed
directed
districts
gate
happiness
heaven
leads
literary
recorded
sorry
targets
teaching
ultimate
wonder
##esh
##ination
##ire
##no
##rating
##well
admitted
adults
brothers
checking
easier
europeans
instruments
masses
masters
miles
ourselves
passwords
pollutants
rejected
rice
tests
transfer
watching
##ath
##ith
##ney
##rable
##rant
##tar
##uous
abroad
afraid
ban
bureau
chair
citizenship
constant
expenditure
herself
monitor
pakistani
platform
practices
reaction
regularly
roads
shaped
shri
spite
substantial
surrounded
##dev
##gal
##ult
##ust
##yas
1984
adult
believes
browse
complain
hitler
ideology
lal
narrow
objective
percentage
pleasure
pretty
rising
sample
shut
stuff
wealth
wireless
##act
##cation
##eer
##fe
##ibility
##ior
##pi
##yan
1989
allahabad
blank
communal
consumers
deeply
enforcement
faced
guarantee
improvement
lanka
leg
locked
memo
obtained
os
pair
rare
refugees
relative
requirements
russian
shot
signal
socialism
treaty
wing
##dra
##ina
##nia
##stan
##sy
bat
behalf
bought
colors
combination
constructed
contribution
destroy
drink
dvd
exports
fax
gradually
greek
jsa
minds
mixed
phones
pitch
playback
positions
ran
seeking
seriously
sight
solve
turns
voluntary
welfare
##ale
##fi
##pression
blind
composed
credits
developments
digital
dreams
engaged
epic
essentially
expenses
factory
genetic
gulf
influenced
lie
mention
negative
reject
reset
scene
similarly
specifically
split
supposed
surdas
surprise
token
vice
worldwide
##ati
##dation
##ement
##encies
##iting
##jee
##lal
##orn
##the
##van
1992
acting
akp
assured
centres
controls
das
detected
doctors
fly
increasingly
knowing
mirror
modified
plugins
printing
reaching
regulations
schema
silent
specially
tata
tomb
turning
wise
worst
##ach
##ali
##cked
##cts
##dal
##ents
##had
##its
##lf
##rian
attach
conspiracy
destroyed
distinguished
forests
haplogroup
infrastructure
nadu
reform
replaced
requested
solid
wishes
writers
##ane
##ared
##ek
##ges
##nation
##ncy
##pped
##race
##rent
400
adequate
arrangements
authors
copies
corruption
denied
destination
determined
diet
harm
ice
personality
pro
resistance
responses
secondary
sharing
spell
tribal
vehicle
##ake
##ica
##ography
##ulating
##ways
cattle
channels
configured
diplomatic
emission
insert
mills
multi
organized
pick
pointed
purchase
resolve
responsibilities
seller
shiva
stages
wild
##ani
##ature
##ption
##sis
##tions
##und
300
65
acted
approximately
axis
catch
caught
clock
coast
conversation
correctly
dollar
granted
hardware
michael
pacific
peak
processes
rent
sacrifice
sequence
sum
supporting
##aging
##ants
##cies
##des
##hs
##itude
##jit
##ound
##out
##ulous
cards
conducted
considerable
consumption
contemporary
dioxide
doors
flower
info
loved
metal
module
obviously
plus
pop
proceed
promote
residential
ring
sand
subhash
train
translator
warm
writings
##een
##lla
##ters
33
academy
answered
basically
begun
bird
brotherhood
cellular
consciousness
courage
entrance
gases
heads
implementation
ki
opinions
plug
presidency
professional
repeated
revenue
severe
succeeded
typing
vary
yamuna
##dha
##dies
##du
##fa
##ika
##jay
##mission
##rity
##rum
activate
arrow
borders
club
describe
determine
devanagari
difficulty
discovered
dna
educated
faster
generations
grade
hatred
infection
lady
lesson
madras
paying
plain
plane
queen
smoking
sniffing
symbol
teams
witness
##hana
##lash
##nan
##sia
00
ayodhya
binding
contract
cycle
depending
entries
gift
hanuman
implications
keeps
martin
newspapers
pieces
proud
sita
slightly
sold
tendulkar
##fs
##ius
##ivity
##lle
##oon
##posing
##ren
##uit
1977
combined
copyright
difficulties
fix
grand
himalaya
illness
indira
italy
magazine
minor
movies
ms
occasion
offering
okay
pointer
refer
spoken
##iation
##lies
##pose
##tude
arguments
arjun
burden
components
copying
cultures
customer
detail
elsewhere
encouraged
flying
gibraltar
gupta
ka
kolkata
limits
mecca
meter
paris
politician
proof
reforms
satellite
siva
somewhere
statutory
trader
unlike
username
wasn
wood
##11
##au
##ea
##ib
##nel
##net
##py
##verse
acquired
aging
arafat
captain
compassion
counter
dispute
fascism
feeding
formal
fun
greenhouse
guilty
indo
possibly
prompt
provider
raising
respond
robert
route
stored
succeed
tabs
##ately
##ats
##bal
##hari
##itive
##nding
##og
##ological
##ow
##right
##ump
##wed
##ws
1973
1979
absence
arts
assam
audacity
awarded
brahman
camp
captured
computers
depth
electric
employed
employees
encrypted
exception
experiment
familiar
forth
inter
patients
punjabi
repairs
repeat
suffered
sweet
thirty
threats
##60
##bia
##cript
##kara
##nda
##rence
##tal
##ther
##wards
advance
awards
component
confirm
emerged
encryption
facility
focused
guest
imprisonment
instant
jawaharlal
karnataka
kerala
microsoft
organs
patel
planned
prize
prosecution
sheikh
specimens
stations
translated
writes
##26
##etic
##hand
##kh
##liance
##lu
##oid
##ub
anywhere
approved
assumed
charles
closer
corners
declaration
drama
expert
fail
fought
holiday
increases
italian
ni
oldest
outcome
prayer
programs
purana
qualities
racial
satisfied
schedule
sections
seventh
spain
spending
ultimately
winning
worker
##ders
##ied
##low
##rmal
##sar
##tered
##uta
##vity
1945
alive
aside
attempts
bowling
brown
circle
classical
elephant
employer
expand
favour
finger
gardens
holds
humans
iii
invited
lahore
pane
papers
passage
rai
rarely
relating
removing
ship
smoke
tracks
wheat
widely
##shi
1939
acid
aids
band
bc
buying
claimed
constitute
crops
delivered
dependent
dog
drinking
effectively
experimental
heritage
improvements
jobseeker
magic
massive
obtain
ok
preparing
residents
scope
serial
zero
##abad
##lished
##pers
##pted
##rier
##rip
##tt
1971
anybody
azad
bay
bigger
broke
canadian
core
delivery
diwali
everywhere
foods
foot
gdm
helpful
hills
incident
magistrate
maintained
manual
meanwhile
minority
mistake
modify
nath
nationalism
native
netanyahu
nice
nickname
numerous
occurs
pin
practical
prepare
raja
sees
shadow
studied
thinks
tourism
transportation
##bha
##lam
##oke
##rative
##ret
##sters
##ula
1970
allies
alpha
apparently
assistant
bangladesh
belongs
breaking
commands
decline
dropped
federation
ignore
informed
investigation
maintenance
medicine
overs
prefer
recognised
recommendations
roman
scientist
sensitive
solvents
somewhat
structures
tend
thanks
tiny
ups
xml
##58
##den
##ena
##ended
##gan
##nse
##ond
##over
##rified
##umps
##ying
abdullah
arm
assad
boys
characteristic
considering
contained
continent
contrary
discover
egg
expanded
goddess
gp
kabul
mixture
painting
pause
portion
profit
prose
recognition
represented
significance
submitted
tourist
unexpected
wonderful
##ald
##ami
##che
##flies
##nta
##ota
##otic
##ua
##uck
##uity
##uted
##view
##wat
absolutely
agenda
aircraft
bahadur
buttons
categories
clipboard
discovery
eating
experts
frequently
friendly
imposed
interpretation
journal
kalam
marketing
monmouth
organ
pa
progressive
realize
responded
smile
tajmahal
tel
toolbar
towns
treasure
verma
voting
wake
websites
##ager
##ase
##ford
##gon
##gs
##ila
##ole
##tary
##umb
##zi
99
allowing
andhra
applet
apps
belonging
buddhist
california
commissioner
deleting
departments
divine
editing
encoding
ending
exclusion
experiments
explanation
extraordinary
intercourse
likewise
mistakes
ombudsman
participation
query
sc
score
shopping
tenancy
tough
traditions
twelve
vagina
##ail
##back
##dding
##ished
##ked
##mark
##nical
##rge
##ug
##using
##we
1960
attachment
browsing
cast
collect
constituted
contributions
convinced
crop
destiny
discussed
emphasis
enterprise
fed
indonesia
initially
involves
jordan
manufacture
ordered
portuguese
processing
ray
replied
resulted
separated
sixth
specialist
symbolic
trusted
votes
##59
##cence
##graph
##ita
##ky
##lined
##lum
##mo
##teenth
##unch
1982
1988
angry
candidate
charter
closely
clothes
completion
complicated
critics
discharge
embassy
generated
guidelines
icons
inevitable
khomeini
loaded
merchant
moves
nagar
puran
realise
realised
relatively
revealed
richard
saraswati
settlement
sports
testing
tries
visual
wisdom
##80
##abi
##aj
##als
##ative
##ators
##eb
##hen
##ime
##ined
##lands
##sity
##ster
##used
alcohol
availability
castes
concluded
councils
dome
flash
functioning
geographical
grass
greatly
hostile
humanity
indra
innocent
integrated
meetings
necessarily
operate
passphrase
pressed
previously
protected
requests
shares
shoulder
stick
trained
treat
verse
westerners
##active
##ame
##avan
##bing
##cc
##gations
##ift
##istan
##lance
##night
##san
##tly
##uting
##val
##vision
acceptance
agents
artificial
blair
blocked
checked
collections
constituent
conversion
directions
dust
dynamic
efficient
excellent
fashion
geography
layer
loan
mohammad
mood
motor
naturally
offices
punishment
ramalinga
rear
recognize
removal
rss
searching
sen
tied
vehicles
##dic
##ems
##gam
##ives
##ona
##place
##rest
##rva
##tical
1994
1995
36
acceptable
affects
arbitration
bollywood
businesses
carlo
comparison
elephants
engage
englishman
estimate
firefox
guard
indigenous
linga
meat
monte
musharraf
nicobar
peaceful
precious
readers
resident
resulting
sculptures
shops
supports
tags
wearing
zionism
##ancy
##anda
##clude
##eal
##eding
##ically
##ishing
##lity
##mar
##matic
##round
##stic
##stone
##vated
##vest
1921
39
anger
arabian
bacchan
barack
commander
commonly
confined
consult
cool
creative
declare
declined
diversity
edited
fonts
gita
headquarters
injury
isbn
jammu
jobcentre
keycap
madhya
notifications
pace
politically
printed
publishing
puts
rapid
regarded
registration
relatives
reverse
sachin
sake
syrian
talks
thomas
thrown
##berg
##board
##cher
##din
##erated
##gram
##ient
##pire
##ru
##wood
ahmed
assigned
attempted
brahmin
breed
burn
chicago
compare
comprehensive
defeated
describes
discipline
distinction
distributed
electrical
employers
ethnic
examination
filename
gene
ideological
imagination
incomplete
ipv4
kalpana
lamp
municipal
mythology
oi
primarily
programmes
prompted
rapidly
realized
receiving
recognized
reducing
respectively
scored
selling
settled
smart
toggle
turks
typical
witnesses
worried
##24
##cient
##cus
##ect
##hesis
##iary
##ject
##ream
##rry
##rus
##tp
##wn
andaman
banned
bharatpur
blow
consequence
constellation
dealt
disability
distinct
dutt
earliest
enjoyed
fairly
favor
festivals
funding
haven
hiv
honour
injured
iso
lesser
liberty
loans
ma
namely
nationalist
occupied
organisms
ozone
paste
prevents
seeds
speeches
sunni
##50
##ality
##azi
##cular
##ell
##erjee
##kal
##nial
##oli
##oned
##phere
##rical
##sal
##sist
##sure
##tile
##word
1000
attendance
breasts
confirmed
conflicts
disputes
dominant
dress
eligible
enormous
folk
glass
grants
harmful
honor
hostname
hotel
joshi
knees
locations
logic
meal
miss
nearby
neck
originally
osama
overall
paragraph
parallel
parameters
playlist
preferred
presents
quarter
reminder
saints
shari
sonia
spring
stayed
tennis
tomorrow
tone
tower
translate
updated
usa
##23
##asant
##charya
##coming
##els
##ght
##head
##iss
##itya
##ker
##lon
##rap
##tics
##ux
##wing
##zen
1975
academic
advocate
applies
awareness
bbc
biological
bookmark
bright
chawla
closing
coffee
colleagues
controversy
cookies
crash
dutch
entering
hopes
indus
installer
ke
payments
pride
robot
thereafter
udaipur
wales
watched
workspace
##33
##54
##71
##babu
##bo
##cha
##dp
##ean
##erate
##izes
##ken
##lied
##list
##ners
##rts
##ude
##vas
##yat
1930
1978
agent
angle
attracted
bow
canal
capture
choosing
consent
conservative
cry
crystal
dignity
eternal
evident
extend
fruits
hate
hearts
jaipur
legacy
lying
moreover
newly
plenty
republican
snow
stress
sympathy
unlock
unsupported
##22
##30
##ae
##all
##ata
##cast
##eo
##fall
##fer
##fill
##hra
##lled
##press
##ras
##shire
##thi
##ukh
##uru
1981
abbas
addressed
adds
aims
amazing
amounts
christianity
cloth
console
customers
darkness
derived
emotional
expensive
fifty
generate
gtk
headed
himachal
implemented
iraqis
literacy
margin
modules
noticed
observe
protest
random
recognise
recording
recovery
register
risks
sale
san
sms
spanish
transform
undo
userinput
vpn
yoga
##44
##53
##ace
##bit
##chandra
##don
##ending
##ew
##ima
##minate
##orm
##ried
##ser
##tter
##ware
agreements
alignment
avoided
burma
chemicals
clouds
compromise
covers
demanded
depression
draft
exposed
falling
gallery
guess
incognito
interview
ipv6
losing
meters
mexico
moscow
picked
push
reputation
sad
setup
singer
studying
submit
throw
tip
titled
tooth
tribes
valuable
waters
weekly
##air
##bilities
##dar
##eration
##hat
##ick
##ida
##most
##oti
##sation
##tated
##ule
##win
##xide
150
1949
afghan
beliefs
careful
ceremony
chand
claiming
co2
conscious
daemon
divide
downloading
economics
fallen
fat
feedback
finish
hasan
horses
immigrants
initiative
lessons
libya
loose
padma
pandavas
partly
passion
perspective
promised
publicly
representation
rough
sales
servers
shrines
subsequent
synchronization
techniques
thread
tilak
underground
unrwa
varied
withdrawal
##12
##asser
##date
##eous
##eries
##going
##krishna
##lacing
##lessness
##lion
##lling
##lm
##mat
##nsion
##nya
##oration
##pelled
##sible
##usion
1946
1976
advised
afterwards
alleged
assault
attend
carved
chamber
collected
existed
fbi
fingers
gov
hunger
incorrect
infected
integrity
intention
keyring
nasa
partners
periods
prisoners
procedures
restrictions
retired
rows
serving
signing
sport
stadium
technique
warfare
wave
##action
##ading
##atha
##az
##endra
##ential
##graphic
##graphy
##irs
##lessly
##logical
##min
##nand
##ood
##ora
##ots
##ously
##pathy
##rations
##rush
##sphere
##tory
##try
##uraan
##utra
##veda
##vival
##yard
020
1936
81
accordance
anglo
apple
attributes
boat
campus
causing
caves
chain
clicking
convicted
efficiency
emissions
experienced
handed
involving
kid
labels
lakes
manufacturing
offensive
orientation
pack
pact
pandit
pen
phenomenon
radiation
remembered
reserved
samples
sculpture
sharp
spelling
super
updating
urgent
wickets
wouldn
yesterday
##ack
##dhi
##hed
##house
##mation
##of
##ony
##orate
##ounds
##ply
##port
##pura
##rc
##type
##vati
1965
1974
55
74
afford
aggressive
album
applying
aren
argued
baghdad
bread
cow
daughters
determines
dev
ex
forever
grid
guy
guys
incidents
insisted
irrigation
joining
kapoor
korea
masjid
messenger
mine
musical
parse
permitted
praise
pregnant
producing
propaganda
prospects
sanctum
sharon
sinha
survive
trip
universities
versions
vis
vitamin
##alt
##cating
##ficient
##gated
##ience
##ils
##lated
##lock
##rk
##sess
##shan
##ssed
##uddin
34
44
bombing
chromosomes
columns
conservatives
currency
cutting
decorated
democrats
discussions
documentation
dubai
feels
fighters
harmony
himalayan
intelligent
kuran
la
liked
los
monitoring
monsoon
negotiations
odd
offset
orthodox
passengers
possession
premises
profound
promoting
reload
replies
salt
savings
sentenced
separation
sharia
solutions
struck
suggestions
tail
threatened
threw
yield
##16
##ac
##asing
##avi
##chi
##hold
##idal
##ike
##int
##ko
##map
##mas
##nant
##odi
##pati
##pping
##raft
##rai
##tis
52
airlines
argue
associations
bacteria
breeding
concessions
detect
devoted
differ
din
disagreement
dismissed
earnings
examine
flows
friendship
harassment
himalayas
household
indicated
innings
insulin
jodhpur
lakhs
lucknow
machines
marine
max
mosques
mutual
narayan
nato
pallava
personally
promise
raid
ravana
returning
routine
screenshot
sentences
ships
sikhara
sorrow
sovereignty
stronger
sunday
sur
symbols
transformation
un
volumes
##acity
##archy
##card
##ctions
##gue
##has
##link
##mate
##oes
##ox
##rged
##tta
##unes
##ush
##zy
1942
1955
1969
42
alphabet
asks
atlantic
attitudes
charity
civilisation
codes
compact
confused
contempt
contributed
convention
converts
crossing
deliver
discrimination
distant
diverse
driving
emerge
everyday
favorite
filling
fox
fruit
harvard
hezbollah
hospitals
hyderabad
improving
indicates
initiated
junk
logged
mandapas
mm
overwrite
precisely
produces
rajput
ramadan
refuse
reporting
scripts
semi
shoulders
singing
sovereign
spreading
stanford
suit
th
tiger
traders
vegetables
weapon
wider
yemen
##17
##amed
##arily
##ernate
##ficial
##field
##gle
##iff
##iles
##iling
##ipur
##mb
##nic
##oda
##point
##tam
##uing
##urse
1967
250
abandoned
accompanied
admit
adopt
array
arrive
childcare
circular
coloured
continuing
crowd
dangers
decrease
deeper
eliminate
equivalent
evolved
fatah
faulty
gained
hoover
imperial
inserted
installing
intense
javascript
lawyer
leaflets
literally
logical
maintaining
medicines
mek
offender
onto
plate
recommend
resolutions
retreat
roots
savarkar
sciences
scriptures
sim
spots
unlikely
viz
##05
##34
##63
##ages
##ank
##bis
##eving
##ez
##gin
##gling
##hibition
##iated
##ility
##iness
##macy
##ob
##pect
##ppy
##rants
##rid
##rising
##tract
##tu
##vy
##wes
##xies
64
73
85
amar
apparent
arjuna
beat
blog
bowl
breathing
brightness
candidates
certificates
challenged
circles
clinton
collective
colonial
commitment
composition
cyprus
dakota
danish
debug
delta
displays
ears
estimates
excited
founder
freely
grammar
graph
grave
hindustani
implement
implies
judgement
justified
linux
logo
nevertheless
nursing
occasionally
occupation
olympics
overcome
penal
pilgrimage
posting
pulled
quantity
reign
scholar
supporters
tactics
taxes
ted
tired
varanasi
verify
viewed
yeah
##aded
##aling
##cute
##dir
##eds
##gos
##ifies
##ifying
##inated
##ingly
##lication
##lving
##pan
##ph
##pm
##rive
##tain
##tend
##uli
##ulse
##urable
##yer
1983
56
actively
aggression
ahmadinejad
blame
civilian
communications
concerning
constantly
continuous
cooperative
decay
el
episode
fi
framework
gtg
hai
hero
holidays
jump
keeper
kilograms
locally
munshi
navy
nobel
offences
overseas
owned
paintings
pearl
pending
peter
pillow
prospect
psychological
publish
refugee
scheduled
sectors
secularism
singapore
situations
stereo
stroke
strongly
subsequently
surrounding
talked
tall
unavailable
virtually
wooden
##gi
##ira
##ively
##jali
##kha
##last
##lous
##nder
##osed
##pet
##reed
##ror
##rust
##ues
##vel
1928
alarm
attended
bangalore
batsmen
breath
catering
collapse
condemned
crucial
dialogue
elder
encouraging
enquiry
ensuring
evict
exceptions
extensive
fate
females
fluoride
frequency
gates
kuwait
launcher
lee
mainstream
manchester
manually
mubarak
participate
philosopher
poll
polls
pot
preserve
prisoner
puranas
rao
recommendation
reduction
researchers
respected
rupees
sharma
shifted
sikh
sindhu
sorts
structural
supplied
swaraj
ties
timeout
tragedy
unfair
unprecedented
upload
vaccine
vulnerable
warned
##25
##aar
##aba
##acket
##ament
##ams
##bat
##cated
##ception
##ches
##ci
##cking
##cratic
##dom
##ference
##gia
##gy
##hibited
##hile
##iled
##ledge
##llah
##mail
##md
##mia
##nounce
##old
##path
##quiring
##run
##sent
##sions
##space
##tarian
1857
18th
1990s
38
51
accordingly
ambassador
amongst
arise
associate
backward
boundary
brave
buffer
canton
carries
cash
chat
clothing
communism
disaster
electoral
excess
factories
fees
fifteen
fullscreen
gcompris
glory
handling
luck
magistrates
mantra
matching
mill
mohan
phrase
plains
publicity
pull
qualification
quoted
resume
returns
satisfaction
separately
shelter
shoes
significantly
stable
stomach
strait
substances
sudan
teachings
themes
tomboy
tropical
uniform
van
visitors
weakness
wherever
widespread
wiki
wives
worlds
younger
##68
##86
##aval
##aw
##cco
##iable
##ias
##iating
##iously
##lers
##let
##lish
##oom
##oop
##osity
##ount
##raits
##sessed
##ugh
##ui
##una
##uts
48
ahmad
aimed
arranged
bombings
challenges
chances
chennai
counted
devotee
dominated
drew
driven
edward
establishing
execute
filed
fits
habit
headers
idol
inappropriate
intervention
karachi
karna
kathmandu
launching
marks
mix
nautilus
ninth
nominated
openly
organic
perfectly
plot
potentially
prevention
privilege
proposals
qualified
recover
retirement
rituals
silver
solvent
striker
terrible
theories
threshold
totalitarian
wastes
##aked
##aq
##aram
##aran
##av
##ava
##cting
##ently
##eshwar
##fying
##gn
##hop
##iterate
##rage
##rah
##udi
##uish
##uk
##vey
1929
600
66
achievement
artists
ash
assume
backend
bell
beta
biruni
booklet
boundaries
cairo
chapters
chromosome
confirmation
consisting
contractor
conventional
curious
db
deemed
desired
disappeared
durga
excessive
experiences
fewer
forgotten
grey
hiding
hostility
hurt
impose
intent
learnt
lice
louis
malaria
malformed
marry
mechanism
operator
panels
prescribed
programming
proportion
relationships
remedy
rid
sardar
societies
sole
striking
talent
transferred
voices
##14
##15
##bel
##bert
##bian
##bour
##east
##ees
##ex
##fier
##fusion
##hetic
##ii
##kas
##kin
##long
##meter
##mp
##novation
##ols
##ployed
##rics
##unction
##uo
##wari
##zer
1931
19th
accessibility
accidents
advantages
adviser
angel
attain
bones
brilliant
cheap
chose
classic
coordinate
crazy
cultivation
dates
dear
define
economical
elaborate
em
frequent
glucose
habits
heavily
impression
indiana
inquiry
kashmiri
laboratory
lawyers
males
microphone
miracle
missed
nepali
nest
passes
ph
printers
privileges
provincial
rabindranath
representing
restricted
retain
rooms
santiniketan
shortage
sketch
soldier
specifies
surely
surprised
thirds
tourists
uncle
unusual
upanishads
vested
vimanas
virus
zionist
##aha
##ahan
##aming
##arat
##bhai
##bhi
##ely
##ept
##hane
##khand
##len
##lier
##lone
##nity
##oa
##patible
##rana
##rans
##ribute
##rim
##rted
##rth
##sary
##stry
##ulates
##uming
##urk
##xed
##ye
##yya
1935
1st
20th
advise
alike
ally
appreciate
arrival
attraction
bachan
berlin
bluetooth
bond
boston
buddhism
canceled
carers
cement
chalukyan
chris
cinema
columbia
consist
cows
crease
csv
deny
emerging
envelope
executed
exposure
gap
gender
glasses
gnu
governors
gujarati
ibn
iranians
judgment
lips
mad
maha
mahmoud
meets
membership
meningitis
override
popularity
popup
predict
preference
qualifications
rana
references
rely
rendering
residence
restored
retrieve
shankar
smith
stability
summit
superior
suspect
technological
textile
thick
varieties
voters
wi
wore
yadav
##18
##77
##ahar
##anas
##art
##bles
##del
##dication
##dle
##eers
##era
##if
##inate
##nar
##nk
##ntly
##oe
##orns
##owed
##rma
##sign
##stance
##vance
affection
anonymous
arrangement
bagh
bath
bears
birthday
bloc
bugs
commerce
doctrine
downloaded
earn
echo
engineers
enters
execution
feeds
firmly
grace
haryana
hosts
icc
ignoring
imperialist
importing
inspiration
interval
invitation
invite
ip
jan
joseph
jury
kanpur
korean
micro
missile
mtdna
nuisance
objectives
ordinance
oriented
patience
pool
premier
profiles
publications
ranks
reaches
reserve
resize
riding
seized
selecting
sheet
shepherd
sleeping
staying
thoroughly
tibet
titles
touched
trends
umpire
upset
wholly
##ars
##eded
##ef
##ene
##erson
##father
##habi
##herent
##hur
##igh
##itarian
##kra
##lor
##marks
##ogue
##olitan
##phone
##pus
##rand
##rank
##rates
##rich
##riel
##roy
##tories
##uated
##ulsi
##urance
##versely
1937
1938
700
77
800
aa
actors
animation
applicable
argues
arrange
cartoon
computing
concentrate
consensus
cuisine
dainik
defend
divisions
emotions
empowered
enforce
enthusiasm
excluded
expired
flowing
forming
galaxy
gathered
gconf
governance
governmental
govt
handled
harder
hazards
hazrat
hindustan
ins
involvement
lands
landscape
laxman
ldap
legitimate
linguistic
minorities
notion
omar
opponent
originated
ought
peninsula
polluted
pray
presentation
projected
promises
rushdie
satisfactory
skip
spin
sponsored
stops
strings
surgery
tablet
temporarily
tested
tie
tongue
tremendous
versus
visa
walked
wheel
##aga
##aic
##cles
##culated
##dated
##fort
##gies
##ground
##hushan
##ison
##ix
##lew
##lines
##liness
##mic
##nga
##ola
##osh
##osophical
##otism
##otive
##pd
##rade
##rey
##rya
##stitute
##suing
##tinct
##uel
##vin
##want
##wara
##yle
0114
1900
1952
1961
1962
1966
259
2nd
95
ahmedabad
amendments
angeles
arrows
broadly
catholic
cease
coat
compositions
counterterrorism
counts
crimes
deals
deities
demons
dimensions
directories
edition
eighth
extract
extremism
fiscal
football
forty
grows
hanging
hole
href
ime
integration
interrupted
investigate
ireland
jones
kitchen
leftist
mayor
mining
missionary
moments
monument
mud
mystery
noble
organism
painted
plastic
protecting
pursue
quadrangle
ramayan
regardless
renamed
republicans
scanning
scenario
sixty
skill
smooth
steady
suggestion
suspended
tales
throne
ton
variable
writable
##48
##800
##ags
##ahu
##aring
##astic
##atch
##bling
##bus
##cracy
##dict
##dya
##ends
##front
##hit
##ich
##iga
##igs
##imism
##ining
##ips
##ister
##itter
##lad
##log
##lora
##mble
##mes
##ndranath
##piring
##pulsion
##rakash
##rath
##rds
##rick
##riving
##rushing
##sumption
##tri
##ulus
##unting
##vail
##vent
##yal
##yst
##zon
53
abraham
accepting
adjust
alexander
ankara
appointments
arch
aryan
aryans
authenticate
bikaner
blocks
centers
classified
cleaning
clinic
comfortable
consequently
convince
criteria
defines
definite
deity
dentist
dharma
differently
domination
entertainment
essay
estate
exclusive
fails
fault
fold
gathering
geeta
giant
graphical
harry
incredible
jean
larvae
latin
laugh
lectures
legislatures
liberals
limitations
mime
olds
outstanding
pairs
passenger
peculiar
petition
poetic
prayers
profits
pupils
quote
rail
reactions
regulation
render
repeatedly
respective
reveals
revolt
sagar
shortcuts
sin
sits
slavery
spokesman
ssl
suri
suspend
taste
tears
threatening
tissue
tolerance
##99
##aan
##agan
##andi
##atures
##cession
##cia
##dden
##ferred
##hai
##have
##icles
##lus
##minating
##mination
##olf
##onal
##orial
##orough
##ov
##piration
##pires
##pradesh
##raced
##rading
##rie
##sance
##tant
##ulent
##ules
##ume
##urban
##utable
##uzzle
##via
##voked
1940
1941
acknowledged
adhishthana
allocate
avoiding
balanced
beetles
bihari
breach
brick
capability
cartoons
celebrate
clubs
commonwealth
concrete
considerably
contribute
controlling
copied
copper
determination
disorder
ek
eleven
emergence
excitement
exclusively
exploitation
farm
fascist
fathers
favourite
frames
henry
heredity
hum
hungry
impressed
injuries
intentions
laying
leather
lights
malware
manufacturer
manufacturers
medieval
midst
nazi
nigeria
paint
participants
petroleum
populations
praised
predicted
quantities
rendered
rises
robots
roughly
scroll
scrutiny
simultaneously
strikes
supplies
tb
transliteration
valmiki
varma
##32
##arity
##ays
##bor
##ctory
##dence
##gian
##guard
##ho
##ifier
##ino
##iots
##kshmi
##lia
##licit
##nment
##nted
##otion
##otives
##oud
##pered
##pse
##rial
##ride
##rology
##ross
##sement
##taking
##tara
##truct
##unate
##urd
##yam
0870
1908
2013
37
abuse
accessible
achieving
advocates
algorithm
bamboo
beating
bench
boxes
brahmins
breaks
breeds
cancelled
coastal
codec
constituency
consultation
corrupt
courses
cpu
damaged
dental
deprecated
dialect
drum
duplicate
earned
exercised
expects
genuine
giver
glade
grain
gsm
heating
heights
hell
historically
hockey
instances
introduce
involve
ji
lea
madrid
mankind
maternity
morsi
nearest
nose
nurse
oceans
oral
origins
orissa
owing
paradise
partnership
perception
pregnancy
preparation
presiding
prevailing
prevented
producer
recipients
referring
reflected
resist
scotland
secondly
seemingly
shapes
solved
spacing
speaks
statue
subordinate
suggesting
supervised
suspected
sweden
syed
taube
technologies
tendency
tensions
thin
transformed
utility
variations
vivekananda
vlc
warranty
webpage
##000
##aka
##aking
##alam
##awi
##ciency
##cket
##cribing
##cription
##datory
##dor
##ela
##erned
##eve
##fession
##ficiency
##harging
##hia
##hpur
##ild
##irates
##ises
##itra
##ivism
##khan
##lender
##lic
##licitly
##loom
##max
##mity
##mond
##more
##nate
##oan
##oc
##olved
##oly
##ono
##pection
##pes
##position
##quiries
##quisition
##rb
##reen
##rel
##sant
##sil
##sor
##tate
##truction
##tting
##ued
##umped
##uni
##uration
##vations
##venience
##wala
15th
1919
1932
1943
72
acquire
ambition
ambitions
ambitious
appoint
approve
banking
bombs
brazil
cambridge
characteristics
chest
clay
cleared
colours
comparatively
conclusions
conquered
corporate
covering
dal
darwin
dawn
deeds
denmark
displaying
enabling
encrypt
extremist
fears
formula
funeral
haguichi
hazard
homework
iata
ibrahim
intensity
isolated
jai
ladies
liquid
listing
lucky
mathematics
mausoleum
midwife
mmr
mothers
mozilla
navigation
nov
oasis
oath
palm
pdf
performing
possibilities
profiling
protein
pune
receipt
refresh
replaceable
reveal
screening
settle
shiv
shooting
silk
snake
stolen
stores
storeyed
streams
surprising
tala
throwing
trend
ul
urge
victoria
villagers
wash
welcomed
withdraw
##adi
##arian
##arya
##ast
##bai
##ban
##burg
##chal
##cii
##con
##cope
##cribe
##dual
##duction
##ein
##gator
##hibit
##hoot
##inal
##ique
##iv
##kers
##lised
##loy
##lusion
##lying
##nam
##ove
##plified
##ptive
##raction
##rm
##rooms
##ros
##sain
##tending
##than
##tte
##tz
##unter
##urb
##urity
##vested
##wad
##weight
1956
1964
1972
1985
3rd
43
achievements
activated
advisory
afternoon
alert
allied
anymore
appeals
atmospheric
australian
autonomous
bali
balls
ben
bhai
biography
boss
bulk
buses
championships
choices
colony
compulsory
concentration
confident
converting
conviction
ctrl
dad
delicate
disappear
disconnected
electronics
excuse
expense
failing
farmer
fighter
filmfare
flags
focusing
globe
griva
guardian
guided
gun
heroin
hits
icao
inhabitants
invented
journalists
kilometers
lasting
legally
letting
libraries
lotus
maharaja
meditation
memorial
modest
mounted
observation
occasions
oppose
partial
penetration
pocket
pope
posted
precise
preventing
pushed
rebels
refers
remind
replacement
reproduction
reward
sage
sentiment
sided
slave
stuck
tape
tips
tribe
tunisia
ugly
utf
varies
ved
verbal
vietnam
washing
##89
##98
##ague
##alman
##ceived
##certain
##chand
##cite
##citing
##conds
##dabad
##enic
##file
##fined
##flect
##hamed
##hini
##iest
##igorous
##ishi
##jahan
##jala
##lihood
##ltry
##mens
##mining
##mit
##nada
##ncing
##nunciation
##oming
##onia
##ops
##oses
##posed
##prising
##rams
##rh
##rough
##sel
##smic
##tilisation
##tism
##titles
##uch
##vant
##xious
1951
alt
amazon
anniversary
api
apt
assets
astronomy
atomic
attained
attributed
badly
bangla
bhakti
broadband
bunch
butterfly
calm
camels
caring
collecting
combine
competitive
complained
consistent
convenient
corresponding
coverage
defaults
demanding
departure
detr
developer
disables
dying
entrepreneurs
erase
fig
friday
generating
geometry
glacier
gnote
governing
hey
ideals
incarnation
inscription
iv
joe
lets
lobby
locale
loksabha
ltd
mary
neighbors
pan
parameter
pitha
pity
portal
preamble
prem
pressing
prevalent
purely
ranking
receives
revert
ride
rival
rubber
servants
somehow
sophisticated
stretch
surrender
tanks
targeted
tenth
thackeray
vessels
##02
##27
##64
##90
##aged
##airs
##ato
##bandhu
##bt
##cement
##ciation
##cience
##cion
##code
##ctive
##direct
##duce
##erator
##ette
##fix
##form
##gni
##gupta
##hes
##him
##hore
##hta
##inating
##install
##ional
##lates
##licity
##lson
##mitted
##nanda
##oi
##oney
##oot
##orries
##ou
##page
##perity
##petent
##print
##productive
##rance
##rator
##rta
##ructure
##singh
##sore
##sted
##tacles
##thon
##trogen
##urious
##vable
##venge
##viation
##was
##wear
##wise
##ype
##yu
1987
54
67
abdel
abstract
acharya
adjustment
advani
affecting
algeria
ants
architect
aspirations
attorney
aur
barriers
belonged
bone
bowlers
broadcast
chola
coach
colleges
commit
conquest
consisted
constructive
continuously
cooking
daddy
decides
demonstrations
deposit
desirable
dies
dilemma
disconnect
dressed
earthquake
electronic
equals
examined
explaining
filters
foreigners
fortunately
founding
ganesh
goa
guarantees
hans
heading
hepatitis
hint
hoping
hymns
idols
immense
inc
infinite
instructed
interpreted
invasion
ironically
lab
lion
mamata
managing
minded
monkey
motions
mp3
mugal
murdered
narendra
neo
notices
noting
opponents
oxygen
passport
patent
physics
pipe
promotion
pronounced
protests
ranging
redo
ritual
rope
safely
sanctuary
saudis
seeks
serves
slight
smell
solicitor
stupa
treating
undertake
vague
wildlife
wrap
##13
##abilities
##aren
##cribed
##duced
##ducing
##employment
##eri
##erous
##eur
##fect
##fit
##fo
##giri
##got
##grant
##grapher
##hman
##icides
##icket
##iers
##imming
##laimed
##like
##ller
##nent
##nouncing
##ock
##ogist
##oker
##ordination
##ored
##osing
##pair
##pat
##pher
##pit
##ptic
##pts
##rafts
##rals
##rao
##rome
##sabha
##stries
##take
##tem
##tent
##text
##thic
##ths
##tivity
##uate
##uda
##ullah
##uota
##uppose
##urate
##usly
##vincing
##visor
##weep
##zation
17th
4th
5th
61
76
8th
accessing
acids
acres
adobe
allocation
anwar
aug
bharati
briefly
capita
clause
comparable
complications
conception
consolidated
conversations
creates
disagree
dramatic
drivers
dung
fee
furniture
greece
identifying
impressive
indication
invisible
invoked
jersey
keen
loses
lsb
lung
maps
markup
mixing
modem
naidu
novels
nowhere
oslo
painful
pockets
pointing
poland
posts
quietly
reasoned
recall
rings
rocks
romantic
rotation
rupee
sages
salvation
scan
seed
sensible
shame
shock
silly
sindh
strict
sultan
sustained
trials
trophy
unlimited
verdict
vhp
visitor
visits
wire
##!
##"
###
##$
##%
##&
##'
##(
##)
##*
##+
##,
##-
##.
##/
##:
##;
##<
##=
##>
##?
##@
##[
##\
##]
##^
##_
##`
##{
##|
##}
##~
##¡
##£
##©
##°
##±
##×
##æ
##ø
##đ
##ı
##ł
##ə
##ʿ
##α
##γ
##ε
##ζ
##η
##ι
##κ
##λ
##μ
##ο
##ρ
##σ
##τ
##ا
##ة
##ت
##ح
##د
##ر
##س
##ك
##ل
##م
##و
##ي
##अ
##आ
##इ
##ई
##ऋ
##ए
##औ
##क
##ख
##ग
##घ
##च
##ज
##ञ
##ट
##ठ
##ण
##त
##थ
##द
##न
##प
##ब
##भ
##म
##य
##र
##ल
##व
##श
##ष
##स
##ह
##ा
##ि
##ी
##ो
##চ
##দ
##ন
##ব
##ভ
##র
##ষ
##স
##া
##‘
##“
##”
##•
##⁄
##€
##→
##∶
##⌘
##☺
##☻
##♫
