[PAD]
[UNK]
[START]
[END]
!
"
#
$
%
&
'
(
)
*
+
,
-
.
/
0
1
2
3
4
5
6
7
8
9
:
;
<
=
>
?
@
[
\
]
^
_
`
a
b
c
d
e
f
g
h
i
j
k
l
m
n
o
p
q
r
s
t
u
v
w
x
y
z
{
|
}
~
¡
£
¤
§
©
«
¬
®
°
±
·
»
×
æ
ð
÷
ø
đ
ı
ł
ǁ
ə
ʿ
α
β
γ
δ
ε
ζ
η
θ
ι
κ
λ
μ
ν
ο
π
ρ
σ
τ
φ
ω
а
в
д
е
и
н
о
п
р
ч
ү
ا
ة
ت
ح
د
ر
س
ك
ل
م
و
ي
ः
अ
आ
इ
ई
उ
ऊ
ऋ
ऍ
ए
ऐ
ऑ
ऒ
ओ
औ
क
ख
ग
घ
च
छ
ज
झ
ञ
ट
ठ
ड
ण
त
थ
द
ध
न
प
फ
ब
भ
म
य
र
ल
व
श
ष
स
ह
ा
ि
ी
ॉ
ो
ौ
।
०
१
२
३
४
५
६
७
८
९
॰
চ
দ
ন
ব
ভ
র
ষ
স
া
ᄍ
ᅢ
‐
–
—
―
‘
’
“
”
„
†
•
 
‰
′
⁄
€
₹
←
→
−
∕
√
∞
∣
∨
∶
≤
≥
⋯
⌈
⌉
⌊
⌋
⌘
─
☺
☻
♪
♫
➣
か
な
不
付
傭
妖
字
容
庸
悠
憂
揺
擁
曜
有
様
洋
溶
漢
熔
用
由
病
続
羊
耀
葉
要
謡
遥
預

�
the
of
and
to
in
is
##s
for
that
you
it
be
not
he
they
are
with
on
as
this
or
by
have
we
from
was
will
them
his
who
which
has
their
but
all
##ing
an
allah
##ed
at
your
if
him
so
##d
one
when
do
there
those
what
india
had
were
our
no
people
been
##ly
##a
any
can
god
then
shall
said
its
other
lord
may
also
only
my
would
##e
day
such
##t
##i
##er
these
time
say
out
##r
up
some
about
more
us
made
should
new
after
into
like
##n
me
##y
two
under
than
before
over
life
##al
government
state
could
most
her
good
world
being
make
##es
##l
first
indian
indeed
did
many
well
even
come
between
know
through
upon
president
down
used
how
way
section
##m
earth
against
very
now
see
where
because
take
act
among
years
work
right
she
believe
use
name
##h
country
##th
file
year
given
does
every
##o
while
man
give
ye
place
national
sent
must
great
set
##an
book
part
surely
development
own
during
information
away
number
##ers
cannot
system
##ment
go
get
water
power
each
##ness
another
##p
let
nor
here
both
##k
back
##ic
##ation
unto
truth
whom
##c
same
things
men
message
help
just
person
order
am
list
without
##able
case
knowledge
long
called
show
##b
came
three
##u
##ity
##le
public
etc
open
##or
children
##ion
account
##on
women
##in
per
except
much
find
high
want
different
last
means
thou
found
land
never
income
created
fear
whether
best
end
house
##ry
education
evil
form
verily
##ting
court
service
need
become
period
error
tax
company
language
small
##te
times
others
themselves
law
##us
today
human
days
known
important
thus
within
taken
central
window
##g
##ble
business
bring
clear
call
left
therefore
something
fire
due
body
yet
better
data
going
too
view
done
turn
states
sub
folder
##rs
##st
signs
change
provided
process
##um
present
again
free
punishment
however
project
heavens
please
group
though
value
true
create
put
general
full
social
##ge
various
cause
amount
why
##ted
save
date
type
himself
##ra
large
services
policy
family
##ful
towards
think
self
available
believers
messenger
bank
old
re
##less
brought
shri
might
##nt
##ive
death
ask
##ar
non
support
##0
##en
economic
action
matter
until
##ia
four
little
return
address
home
food
off
already
love
faith
path
members
area
light
nothing
##ent
follow
##na
##ism
whole
gave
worship
having
##x
level
far
able
thee
control
technology
next
always
words
mind
together
above
night
society
hearts
based
image
keep
##ma
interest
add
##ts
still
##ce
selected
nature
enter
few
five
ever
##re
10
religion
war
following
whose
leave
nation
hand
certainly
peace
research
health
application
word
##ary
deeds
political
common
rs
making
countries
##ies
respect
failed
scheme
look
history
took
fact
authority
international
areas
##ous
provide
##ne
capital
point
##ha
send
age
child
seen
##ure
thing
minister
##f
around
special
local
later
certain
sector
industry
files
current
second
financial
muhammad
##3
##ta
position
further
since
hindi
mercy
according
bhavan
money
text
wrong
once
equal
term
line
search
##est
select
##ty
##ur
start
main
less
command
##is
whatever
external
party
university
british
growth
knows
remember
father
##ian
##6
##ri
including
saw
son
total
became
##ant
foreign
possible
security
along
##ya
##1
office
delhi
##man
rashtrapati
required
management
city
moses
anything
heart
quality
several
##la
##2
server
therein
side
don
mother
read
rate
either
soul
clause
thought
forth
##am
##eth
related
went
working
hath
cent
##ate
##it
english
##se
young
reward
meeting
production
hands
question
##ist
using
kind
subject
property
received
department
##v
000
prophet
example
singh
move
none
contact
guidance
air
course
force
union
school
face
thy
itself
play
wise
##as
close
near
live
field
key
##id
##ct
soon
messages
greater
works
merciful
constitution
revealed
##ial
committee
tell
congress
asked
higher
market
##4
behind
living
##ling
held
pay
king
size
muslims
##sh
task
##5
##va
activities
computer
goods
website
south
##8
hell
saying
understand
district
trade
necessary
major
written
institutions
previous
comes
purpose
rrb
source
http
started
head
muslim
user
remove
##il
page
parliament
lrb
sign
cost
whoever
future
besides
##tic
changes
told
tree
network
programme
movement
provisions
neither
alone
##at
established
hindu
##age
class
training
story
problem
##ance
eyes
complete
officer
sure
turned
##9
doing
west
art
plan
got
months
energy
till
single
east
river
community
persons
science
share
council
believed
##ter
ones
##ging
exchange
everything
result
blood
seek
short
really
often
12
lo
##ated
appointed
effect
industrial
messengers
mode
mail
##et
israel
problems
##7
america
wealth
specified
role
default
sea
students
report
plant
certificate
copy
village
individual
credit
freedom
sense
parts
considered
color
mukherjee
board
member
occasion
paid
north
witness
mankind
##led
duty
makes
terms
category
reason
books
opens
check
passed
natural
rights
rule
progress
gives
taking
justice
creation
says
chief
building
religious
access
write
rural
strong
needs
pradesh
news
operation
rules
loss
run
angels
increase
##ious
centre
early
region
forward
united
press
writing
basis
lot
matters
display
eat
##w
referred
trust
dr
manner
spirit
15
##tion
conditions
six
disease
video
private
##da
##ities
least
space
##ization
literature
woman
article
personal
benefit
##ka
gandhi
half
knowing
particular
past
try
##ors
wish
supreme
sun
##ring
hereafter
##pur
meet
modern
co
receive
function
wife
##ch
ministry
pranab
million
century
enable
forgiving
bengal
culture
ii
##ized
##ve
care
payment
dead
deny
accept
unbelievers
##ll
disbelieve
poor
evolution
nic
month
seven
continue
20
hard
almost
speech
guide
resources
followed
top
##de
allowed
prayer
torment
enough
price
gardens
##ence
doubt
prime
##z
status
population
##ck
instead
mighty
hour
brother
capacity
commission
global
developed
11
##ir
environment
hold
device
temple
visit
disbelievers
delete
actually
lost
mr
document
assessment
earlier
post
third
rather
astray
provision
islam
aware
kept
character
promise
original
bear
sabha
unable
##ally
program
real
guided
speak
righteous
white
test
investment
issue
raised
lead
note
code
products
desire
##el
##ng
institute
password
study
##ised
accounts
bill
##ti
limited
condition
purposes
cases
demand
fight
experience
details
march
hear
include
big
decision
physical
##ze
fund
hope
transfer
ground
republic
perhaps
houses
structure
ll
outside
##nce
asia
relations
sound
banks
efforts
unless
groups
below
al
##ged
letter
friends
middle
##ating
##ut
material
relating
software
##ine
assessee
places
##red
answer
entire
judge
low
feel
unit
##men
apply
accepted
decided
##ations
success
poet
##ji
remain
police
provides
sanskrit
##ical
record
calendar
evidence
names
30
difficult
rest
die
easy
nations
issued
stage
##ping
basic
resurrection
official
html
##ily
direct
directory
prepared
reach
western
caused
industries
agreement
choose
economy
yourselves
coming
strength
divine
##hi
##un
stand
carried
fast
spread
##ral
leaders
wrote
morning
loan
values
##sing
legal
##ke
produce
event
ten
verses
civil
##j
##ration
beyond
##ries
25
projects
##der
situation
##ise
quran
april
giving
##ize
published
happy
lives
sky
ways
##ish
object
especially
forms
pass
release
scale
across
export
film
birth
lower
reached
becomes
email
link
agricultural
flow
method
generally
patient
began
notice
africa
oil
servants
##ni
belongs
setting
connection
cut
employment
##ible
simple
rivers
##land
active
languages
heaven
##ium
similar
independence
version
front
product
plus
##kar
settings
agriculture
quite
firm
specific
behalf
wide
led
parents
returned
game
companies
idea
##ps
increased
medical
approach
powers
concerned
heard
memory
institution
assembly
session
gone
rich
thereof
pharaoh
issues
running
normal
job
usually
forces
statement
lies
takes
red
bad
##ding
fixed
systems
concerning
programmes
sin
##les
deal
ancient
room
hearing
##ot
import
built
understanding
administration
ensure
moon
100
although
2014
opportunity
friend
commissioner
placed
paper
parties
treatment
infrastructure
effective
location
providing
learning
existence
importance
truly
web
abraham
style
eight
responsible
anyone
forgiveness
goes
labour
protection
finance
build
##li
##ular
taste
50
charge
disc
conference
black
##tive
islamic
format
##cy
born
knew
activity
green
cultural
click
sometimes
##nd
existing
fall
##me
item
facilities
getting
##rd
##tor
rain
##ny
army
gods
beginning
##ns
practice
units
##hip
wanted
##ning
destroyed
europe
painful
16
revelations
affairs
options
shown
##ah
satan
deep
assistance
felt
garden
apart
poetry
unknown
##ana
plants
prescribed
female
grant
looking
presence
14
hundred
standard
regard
##sis
base
joint
american
laws
author
round
lie
tried
cell
animals
##ile
measure
consider
##ery
direction
mountains
sufficient
mark
talk
carry
edit
stop
claim
option
immediately
obey
##tation
music
table
##isation
numbers
permission
content
paradise
pakistan
forgive
bar
supported
officers
added
##ual
produced
step
vision
##sa
ideas
praise
range
##ments
contains
straight
serve
additional
final
2015
##ened
association
formed
thousand
invalid
someone
crore
continued
##ro
spend
ve
##ms
##ded
##ving
eye
proper
##ee
spiritual
hide
workers
regarding
responsibility
##ier
##aries
meaning
fully
generation
media
sons
learn
opinion
annual
##ists
items
whosoever
regular
mentioned
offer
balance
drink
twenty
presented
judgment
kingdom
mental
##ds
denied
particularly
town
boy
calcutta
remote
promised
successful
stay
severe
2000
inside
##sm
democracy
measures
road
mumbai
addition
changed
college
insurance
hours
granted
screen
plugin
unjust
citizens
##ions
audio
feet
##ad
types
wills
editor
maximum
wait
allow
famous
violence
##ue
documents
chastisement
enemy
week
cast
january
processing
technical
harm
standards
wishes
associated
drive
essential
18
else
apostle
supply
advice
##ties
governments
saved
minimum
##ol
scientific
beautiful
expenditure
sins
separate
completed
powerful
fair
milk
award
male
former
recent
folk
heavy
potential
benefits
partners
corporation
##end
favour
governor
entry
highest
otherwise
attention
reading
results
doers
implementation
sight
minus
terrorism
leader
lakh
##ite
expression
met
division
longer
cooperation
master
##ability
chapter
faces
##bs
regional
marriage
procedure
operations
selection
farmers
ill
pleasure
##cing
##nal
grace
appeal
questions
machine
team
develop
##rate
employees
13
mission
fathers
organisation
secure
##ls
opened
sri
empty
##ay
yes
length
output
performance
manifest
manager
shows
##ition
cover
percent
2013
description
detail
standing
organization
schemes
##ss
##ul
ready
popular
funds
##ned
##ified
stories
struggle
assets
##ip
ago
mean
explanation
military
reference
internet
conduct
director
reply
sum
##ap
card
laid
##cted
medium
december
nehru
title
krishna
animal
limit
election
cities
primary
##sed
print
##line
courts
##di
draw
nay
grow
june
url
covered
educational
break
pranabmukherjee
governance
innovation
online
species
images
cells
reminder
directly
functions
average
storage
extent
named
wisdom
calls
causes
connected
commercial
entered
foundation
load
pure
##sion
protect
principal
exists
##ans
background
model
relation
rise
effort
acts
steps
includes
site
traditional
china
##ator
useful
trees
september
october
hidden
trial
clean
opportunities
##tes
##war
leading
feed
kashmir
##to
false
opening
weight
##han
leaves
establish
gold
voice
##ered
contacts
events
chairman
independent
lines
policies
resource
universities
advance
font
largest
##tors
won
relevant
##way
cash
distribution
youth
flag
secret
##ped
warning
##ud
august
fruits
host
windows
response
##pe
staff
lived
speaking
noble
bit
contribution
surface
wives
collection
branch
growing
studies
appear
indians
ram
blind
sacred
distance
welfare
##and
consciousness
desires
included
amongst
helped
appropriate
domestic
journey
sides
fields
asset
played
thinking
##ner
##ians
divided
2016
##per
engineering
root
bombay
rejected
planning
properties
portion
accordance
deemed
seems
square
##q
legislative
series
24
appointment
raise
needed
##cs
join
killed
tamil
cattle
trying
kill
stone
adopted
communication
folders
likely
november
contract
fruit
attack
google
##ray
involved
tidings
difference
influence
refers
significant
defence
safety
poverty
relationship
gandhiji
developing
iii
##im
majority
phone
associate
seeing
july
2007
stated
committed
construction
www
applications
circumstances
filter
serious
##ore
port
guru
##ai
articles
declared
centres
elements
listen
ourselves
##ie
clearly
eastern
extended
profit
##ice
philosophy
remained
internal
forest
holy
husband
##ks
moving
##ba
column
##ler
instrument
risk
transport
recompense
wind
##ward
hindus
##os
custom
interests
larger
chosen
reality
taught
center
##si
increasing
expected
height
tool
touch
mass
##use
focus
##king
enjoy
located
removed
lok
scripture
skin
speed
##ology
##ves
earned
guard
whenever
##vation
brings
soil
creating
died
gain
shape
exercise
##ga
evening
forbidden
points
design
travel
daily
tradition
villages
##ram
birds
##ury
looked
poems
request
examination
described
net
promote
temples
wall
##istic
box
unique
consideration
destination
beauty
mutual
unity
nine
##go
configuration
perform
##uring
behold
tagore
disbelieved
everyone
stock
characters
promotion
punjab
target
lest
1st
european
engaged
##ja
burning
gets
sale
17
picture
wherein
exist
levels
teachers
awards
observed
mobile
##mi
improve
friendly
##izing
##med
objective
throughout
views
channel
width
secretary
registered
anti
blessings
##res
schools
##ton
##00
station
volume
excellent
seeking
moment
fine
replied
##bly
contained
february
returns
teacher
button
plain
fish
warn
solar
theme
akbar
petitioner
greatest
reserve
visible
souls
valid
belief
merely
nuclear
shares
##ory
universal
crops
##har
families
##ult
avoid
reject
banking
resolution
homes
qur
railway
spent
ministers
##ising
##tra
2008
2005
update
##ran
charges
connect
dust
dispute
exalted
easily
keeping
pattern
thereafter
waste
delivered
forever
mention
shah
variety
##fully
glad
2006
21
achieve
authorities
payable
belong
complex
registration
pleased
extension
woe
##lt
advanced
turns
determined
sections
commit
learned
sending
double
kinds
prevent
feeling
honour
assistant
id
late
urban
amendment
cd
library
##bar
remains
covenant
passing
##pt
believing
defined
truthful
##om
festival
##zed
sort
19
40
brothers
degree
principles
probably
songs
aid
bound
desktop
agency
tasks
worked
##ver
##vi
context
enabled
users
waiting
2012
failure
yourself
##ved
literary
review
##ction
actions
input
glory
integral
novel
academic
cold
contain
wants
finally
noah
gas
lay
delivery
offered
executive
pre
pressure
km
##ably
province
democratic
##rated
pain
archive
victory
whereas
girl
happened
yoga
##co
##ala
currently
jews
##ire
bounty
maintain
rama
guilty
log
penalty
suffer
worlds
##bility
01
##ons
cross
establishment
warm
weather
knower
notes
##ard
bodies
myself
proud
correct
follows
installed
mainly
thanks
track
begin
destroy
wronged
##ening
park
##ited
sought
##ger
##our
disk
memo
tab
recently
completely
england
proof
expressed
dark
diseases
safe
judgement
goal
kerala
2001
administrative
blessed
fill
preview
seem
reasons
aim
scheduled
##set
vast
##bi
crop
individuals
introduced
thereby
##name
##ures
darkness
generations
seized
methods
submit
territory
1961
partnership
##ric
##nate
burden
contents
greetings
teaching
welcome
prices
forget
inspired
orders
dry
insects
positive
joseph
seed
latest
moral
chandra
relief
23
extend
shared
affected
practices
sectors
dated
mahatma
phase
reduced
priority
drawn
abroad
bestowed
pray
highly
minutes
sources
suddenly
##ute
multiple
star
deduction
##zing
figure
bengali
limits
##bit
letters
nearly
##ics
assigned
critical
##out
parliamentary
weak
##ulated
store
cave
agencies
maharashtra
features
##ara
inner
marketing
sacrifice
warner
carrying
latter
machinery
22
##my
##ture
confidence
daughter
drop
moved
fell
guides
##day
fit
##lation
##nath
consumer
valley
##ils
##ron
abode
beings
filled
fresh
profits
2002
refuge
##ings
suitable
changing
effects
match
witnesses
##dy
##ber
##ets
joined
partner
##ose
ad
notification
replace
60
duties
purchase
translation
element
requirements
speaker
watch
upper
automatically
tribunal
##logy
##ins
##wa
reports
block
initiatives
regions
starting
schedule
28
happen
vital
commanded
permanent
ship
debt
deposit
ganga
launched
battle
guardian
entitled
leadership
holding
facility
excellency
agreed
caste
drugs
impact
materials
26
actual
##ak
door
suffering
tomorrow
khan
sir
ability
mary
##ung
heat
stood
toward
##mination
politics
whatsoever
writer
concern
lack
pages
rajasthan
submitted
temporary
unseen
historical
fundamental
offline
##ide
disable
hence
reduce
revolution
strike
fighting
gujarat
recorded
##nts
31
climate
faithful
proved
proceedings
27
arabic
menu
offices
owner
currency
pollution
throne
##osis
##pa
##ress
##ris
factors
instance
##ca
attached
conflict
elections
hospital
rajya
negative
nepal
##cent
punish
specify
blue
comment
empire
magic
register
survey
##ow
challenge
links
namely
##ctive
lawful
prosperity
sex
sitting
doctor
##by
##ft
settlement
mere
requires
bottom
aspects
poem
script
tea
rupees
database
mountain
##lo
electricity
##hood
##rating
integrated
participation
zone
jesus
##lies
departments
falsehood
containing
principle
stars
escape
musa
##its
cricket
didn
swear
convey
released
senior
terrible
##ulate
avail
marked
successfully
choice
tools
followers
patience
revenue
##ering
##gar
inter
2018
car
decide
##her
##ki
vice
##low
intellectual
treated
##rous
##table
##itude
medicine
##ria
##rn
00
abide
branches
classes
iron
rates
situated
maintenance
publication
##tan
approved
charged
destruction
discussion
student
uses
wage
bird
##row
islands
dream
manufacturing
bills
roy
##rat
assam
license
awareness
communities
thirty
undertaking
ahead
bose
plays
theory
achieved
##ification
fourth
walk
##em
##ump
operating
appears
frame
string
##hu
##pose
gains
married
weeks
##yan
##cal
huge
mount
sends
signature
tonnes
##nation
facts
htm
showed
grown
smaller
1999
saving
##que
opposition
sleep
signed
subjects
##ify
friendship
universe
analysis
damage
ideal
##ants
admit
doesn
theirs
andhra
applied
##ates
attachment
initial
##ep
joy
peoples
prayers
##matic
cry
jurisdiction
afraid
dear
equipment
gathered
judges
looks
identity
rice
##op
concept
examples
constant
deleted
ears
##ative
##ming
appeared
corruption
performed
whomever
##time
deliver
helps
##up
london
objects
interesting
reforms
solution
ocean
substance
willed
adequate
elected
mouth
meant
presidentofindia
scientists
allowance
chance
enemies
factor
housing
perfect
##ula
bringing
##yed
icon
authentication
domain
scholars
visited
piece
records
border
criminal
##rain
absolute
bihar
index
challenges
objectives
uttar
loading
professional
prostrate
turning
fort
healthy
ordinary
argument
compensation
adam
communications
happiness
dvd
intelligence
accused
arab
busy
##ining
##rus
approval
attempt
extra
header
hypocrites
delay
layer
plans
squared
arms
atmosphere
capable
devotion
hill
wherever
grateful
map
season
##wan
settled
song
resident
revelation
hair
strengthen
compared
lose
corporate
dance
multi
loans
bc
minds
zero
daughters
desert
committees
served
hot
colour
##cate
##ination
northern
temperature
obtained
##rant
##nia
thousands
attitude
digital
judicial
200
bharat
##ges
##nse
count
disbelief
thoughts
remembrance
##als
##light
expenses
heads
##ces
##ined
##ken
becoming
##ack
costs
girls
proposed
##usion
apostles
motion
closed
possess
assessing
confident
playing
agree
initiative
##tha
customer
interface
##he
##be
brain
officials
sexual
citizen
encourage
sustenance
template
##son
bed
eve
occurred
quit
radio
burn
##ied
##rator
##uck
advantage
bilateral
calling
##ari
despite
automatic
flowers
require
sister
informed
leaving
profile
stream
##cts
disabled
consists
steel
origin
seemed
##ale
2004
babu
designed
differences
properly
proxy
chinese
##orn
poets
protocol
recovery
armed
##ok
grieve
street
29
announced
audit
fuel
blame
explain
losers
proofs
2009
aside
secondary
absence
technologies
express
heritage
recite
##mation
prophets
##ain
##iness
##late
mohammed
##ancy
##ea
implemented
reported
##ural
player
raw
rock
##aging
##int
2003
distinguished
outstanding
printer
##ens
ball
reveal
component
insert
processes
telephone
jinn
throw
actor
karnataka
possession
##ess
##going
browser
skill
fifty
race
bone
broken
covering
decisions
receipt
wrongdoers
80
displayed
maintained
recognised
##jan
constituted
detailed
exports
formation
heed
skills
toolbar
runs
subhas
campaign
organizations
beneath
charity
mostly
tissue
tourism
chemical
commitment
courage
legislature
mailing
split
ali
creatures
gather
##ik
conducted
entirely
operative
sit
french
pension
acquired
deed
deputy
equality
leads
observe
simply
southern
##ight
marry
pacific
budget
decades
drug
helper
mosque
trading
de
sick
arrived
install
instruments
proposal
##dation
bow
clouds
reform
polytheists
refused
summary
core
eligible
eternal
fellow
profession
buy
extremely
oh
markets
transaction
row
##back
maybe
package
allows
career
efficient
twelve
##ten
jail
sets
##nes
auto
thank
##bing
foot
terminal
##city
backs
environmental
hills
orissa
sees
bones
framework
similarly
agent
cabinet
download
quickly
soft
spot
##rable
##tar
lake
remaining
sold
##ying
household
##ugh
aims
centuries
hurt
impossible
reflect
securities
enterprises
usage
expect
##ey
##ina
decree
functioning
##sive
500
photo
##ters
pane
##graphy
answered
hast
personality
client
fulfilled
vertical
##iled
christians
districts
israeli
stands
dealing
excellence
movements
equally
golden
sardar
tribes
##iate
improvement
##sha
accordingly
repentance
twice
##ean
##gs
organized
believes
inform
jammu
scope
servant
john
##itis
asking
billion
configure
happens
recited
train
trouble
##ub
hardly
recognition
##ses
edge
appearance
instructions
represents
##rew
david
launch
pipes
wild
yield
electronic
iv
explained
identified
silver
pious
strive
sugar
##ution
2011
bus
switch
lying
normally
employee
grain
island
##osing
computing
conscious
missing
worth
##ency
##ibility
##sts
creative
spoke
##ii
##lal
##ulation
deity
ratio
rising
tribal
##ys
aspect
preferred
tongue
##ail
##og
eggs
protector
prove
##hana
kde
pride
showing
horse
mixed
##ched
##rum
palace
teach
##teen
composed
stones
##unt
affair
difficulty
immediate
strategy
##tle
restore
##ient
##oo
coal
companions
feature
introduction
religions
availability
farm
games
offers
stayed
##mb
customers
fought
outer
##ull
fee
graph
overall
##mon
deeply
reckoning
seeds
verse
##sions
urdu
##des
duration
estimated
kumar
##some
##und
iran
palm
##culation
claims
naught
offering
##uri
guidelines
obtain
axis
figures
recall
##atic
drama
holds
transferred
##shed
##cious
##cks
crime
##ini
floor
relative
whomsoever
##ata
belonging
directed
##stic
compassionate
depends
driven
personnel
platform
dedicated
palestinian
curse
customs
infinite
nadu
promoting
towns
##ac
##fy
##licate
##mark
quick
royal
irrigation
regulations
spoken
##lated
clay
enjoyment
ignorance
panel
rename
submission
##eration
intended
reader
ships
gift
keyboard
transmission
##ents
##sy
comprehensive
firmly
prose
##itive
##nic
onto
organised
satisfied
worldly
organisations
02
falls
legs
pieces
rent
drinking
monitoring
alive
##ulating
08
attend
dialog
forests
humanity
repent
##ese
##pel
09
idols
rare
respite
##room
desired
jawaharlal
##ement
##gh
commerce
##active
##ole
##rip
affect
bangladesh
categories
chain
manage
st
worshipped
##tory
draft
hasten
understood
violent
achievement
occur
oft
##worthy
quantity
writers
##shi
35
##uity
applicable
baby
prince
queen
subscribe
tender
##pelled
behaviour
equity
interested
numerous
transactions
arrangement
acting
germany
spring
##das
##od
employed
hall
prior
##ried
devices
distributed
enterprise
felicitations
forty
module
symbol
##bad
##omy
##rt
admitted
considerable
printing
terrorist
##mer
broad
cloud
egypt
##ished
##lla
atomic
convert
creator
efficiency
minor
offence
sustainable
##ene
##oked
##ura
ibrahim
league
overcome
##ime
camel
consumption
ends
gnome
improving
receiving
respondent
righteousness
##box
addresses
persian
degrees
grew
hyderabad
identify
iraq
##ach
##tis
##uous
constitutional
cotton
##ig
##pal
demands
discharge
fail
gradually
interpretation
regarded
stored
terror
zoom
##za
90
warned
complaint
meetings
mouse
professor
comments
marks
older
sudden
yours
initiated
##lic
##rap
##tal
##vy
forwarded
japan
ray
reasonable
requested
talking
##ix
parent
plot
rulers
signal
suggested
competition
facilitate
permitted
##wn
aught
spite
walls
##fies
##nsion
assuredly
crisis
improved
junk
modified
starts
##erate
##ern
christian
collected
courses
deposits
respective
begins
couldn
counsel
haply
##vity
wrath
filed
iso
recognize
roads
wood
yellow
admonition
##ography
continuous
gate
sweet
drawing
noted
75
conceal
fifth
infection
mine
railways
undertaken
##hy
creates
doom
masses
buddha
favor
productivity
##ators
soldiers
stages
##mas
cried
ear
salt
gracious
notwithstanding
raj
upto
delight
divide
sorrow
##chandra
beside
cancel
faithless
contemporary
touched
win
##ill
##rian
32
jobs
partition
representative
##gation
1947
##ld
##let
acceptance
sat
##ush
##view
printed
sheet
suit
writings
##ption
bridge
ease
relatives
via
micro
prison
bookmarks
era
linked
sell
vishnu
##gate
castes
equals
afghanistan
dwell
formal
occurs
testing
##icate
herself
struck
##ride
arguments
node
architecture
continues
##ees
##ility
boys
expansion
liability
topics
amp
keys
ordered
vain
##anda
acquisition
trash
sentence
##aring
addressed
wicked
2010
millions
mughal
airport
estate
injustice
label
legislation
ambedkar
components
cooperative
imagine
invited
mechanism
##lessness
##ther
brief
depth
educated
guarantee
liars
rapid
shaped
vedic
##ath
##tical
regulation
snow
swami
##ica
institutes
presentation
recognized
russia
strategic
##pi
papers
##bal
##mal
layout
minute
oneness
respectively
adding
threat
breasts
cancer
difficulties
hit
narrow
raja
traffic
##nch
completion
determination
organ
removal
##ically
##ker
forced
##ips
##kara
##vas
bug
derived
earn
increases
stopped
virtue
weapons
##van
disputes
invoke
tube
wages
alternative
clubs
finds
07
diverse
horizontal
##ast
##ndra
cards
suffered
anniversary
asian
exactly
faculty
flat
harmony
ties
venture
##sist
directions
excess
founded
lady
symptoms
voluntary
##kha
##right
competent
declaration
inspiration
meat
oath
sensitive
subjected
wonder
##lam
##ship
fluid
societies
tag
worst
accident
celebrated
communal
museum
succeed
##ool
1998
45
emergency
noise
worse
##meter
##ological
commands
sake
turkey
##ua
advised
programs
yesterday
buildings
exceed
killing
prepare
specially
##ci
##yer
accurate
binoy
dog
ended
finding
##cular
cycle
dawn
eating
majesty
needy
counter
finished
ignorant
##io
##lay
anger
facing
##hal
##inal
determine
elephant
planned
speeches
vehicle
##ctor
##ome
##rl
preparation
proceed
realize
adult
dwelling
plugins
saint
##ang
##gated
##house
goals
practical
streams
usual
##tered
couple
daniel
kolkata
sales
strange
##lance
03
binding
danger
extreme
instruction
slave
slaves
tourist
##erated
##ham
bright
civilization
oaths
raising
steadfast
wings
##bel
##side
05
dominion
##ipe
##kh
##uish
greatly
knoweth
sinners
sports
worthy
controlled
offspring
##pression
outlook
satisfaction
trained
appoint
feeding
flower
gupta
koran
perfection
retribution
topic
##au
##fe
contribute
arrangements
ignore
lesson
##ama
##encies
circle
conservation
gross
lessons
represent
residence
seconds
solutions
territories
transformation
##60
diet
evident
injury
nabard
remarkable
sites
bond
cow
mothers
refer
summer
##atory
##cus
##dev
##ites
##ree
##ured
##ways
pointed
chrome
das
discussions
hosts
##ule
acid
investments
solid
arrogant
opposite
rightly
widely
##30
##ban
##bed
##cast
##cked
##ff
##ior
alike
carefully
lock
producing
sharing
strengthening
chaitanya
emphasis
females
madras
##ade
##ivity
##oid
##tch
contributions
humble
slow
thread
fault
flight
france
##iding
##old
##ressive
australia
debate
investors
loves
ordained
testimony
discipline
fever
progressive
shift
breast
preferences
scene
##aya
##igation
##ots
##port
##pressed
##vati
claimed
consequences
devoted
forum
insect
pair
recommendations
treat
##tate
sita
awarded
madhya
naturally
pilgrimage
arising
discussed
distinction
installation
obvious
qualities
technological
crores
purity
##dle
##gram
##pse
##uted
algorithm
ceremony
realise
salary
##izer
colors
hardship
owned
prasad
##act
##nam
com
fearing
permissions
rose
ruler
##ison
attain
combination
declare
rank
utter
wear
chargeable
employer
poetic
vegetables
##ond
effectively
favours
goddess
##rid
pleases
sheep
##ley
##ock
egg
enhance
innovative
proportion
##ends
criticism
grants
solve
uri
##tain
bearing
beneficent
prominent
willing
##ae
bliss
flesh
japanese
percentage
york
##lled
chat
span
contrary
dynamic
imposed
seeks
##ncy
grievous
ultimate
britain
carbon
distinct
silk
##mo
band
diversity
factory
newspaper
significance
sincere
##reed
companion
manual
##lock
##uate
70
accessible
careful
oriented
traditions
ungrateful
##wal
causing
emperor
leaf
yusuf
fly
periods
seats
##cting
##eo
covers
driver
petition
urge
##20
##wise
ramayana
vote
##ked
##rity
drowned
execution
george
mischief
representatives
substantial
##version
##wing
encouraged
pledge
##bling
adopt
bold
essentially
socio
teeth
wholly
##hed
##iary
cup
grief
parallel
route
tv
##lus
##ners
bears
directors
flowing
ha
proclaim
somebody
##lls
##one
##verse
attribute
bush
##iff
chose
closer
deities
incurred
login
##like
accompanied
computers
decline
everlasting
recommended
1956
conversion
dealt
faced
ice
reaching
decade
dreams
immense
shiva
tremendous
##ag
##vent
attacks
checking
drag
studied
waters
##lessly
conclusion
electronics
ms
pictures
##gal
##irs
300
cultivation
falling
mandapa
midst
monotheism
angel
clothes
constantly
consumers
neck
permanently
##ali
##nagar
##oke
broke
ensuring
himachal
hinduism
maharaja
roots
achievements
differ
largely
sequence
##head
##ib
##tary
alarm
consequence
feelings
permit
sisters
stations
telling
valuable
modify
thamud
un
wing
##eer
##rates
caught
convention
distress
gora
ltd
slowly
bonds
camera
cursor
definition
encryption
imported
kings
liquid
grass
invite
managed
wherefore
commonly
engine
ex
monthly
decreed
participate
possessed
requirement
statements
treaty
##een
##hand
##ox
##win
entrusted
parameters
##lot
##oring
emerging
fate
solomon
##cence
##over
aaron
belied
dictionary
torah
winter
##14
##cle
##ication
integrity
realised
structures
totally
##empt
##lf
arts
coast
deals
describe
literacy
##icide
cache
eminent
putting
##eal
##lities
##wed
cease
ranks
##sia
cheque
learnt
##nounce
##rants
descendants
ending
humans
##dan
##lan
##uation
##vated
almighty
constructed
exit
grand
paying
procedures
representation
theatre
##ane
##no
##ream
arranged
expand
fifteen
oral
revolutionary
sad
variable
##wards
1992
inclusive
islamist
pandit
technique
##alaya
arabs
pairs
resolve
##pped
##rma
entering
german
lasting
metal
questioned
respond
##dar
##den
##oon
opposed
presents
surrender
wheat
##cc
##nder
##position
06
beach
journal
mahabharata
seat
##fs
##una
gita
lal
participants
walking
##book
##fied
repeated
ruling
winds
worker
cloth
commencement
fat
happening
liable
marathi
resulting
sanction
scriptures
transgressors
viz
##ode
attended
subsequent
suggest
tour
##here
##nding
04
loose
mistake
nobody
ran
separated
sixty
appellant
dependent
provinces
reduction
##orm
##rent
channels
eventually
inhabitants
##ani
contributed
lamp
##liness
##rge
##work
arrested
defeat
headers
kg
novels
prize
taxes
##rified
closely
deceased
enables
evidences
glass
hatred
revision
sixth
##bha
##minate
contrast
represented
wished
##ert
##pare
##wood
1948
depend
wilt
##ats
##etic
childhood
deaf
frequently
manufacture
organic
pop
possibility
regularly
##lets
consent
corner
discovered
privilege
references
##the
##vival
##zy
attach
dignity
helping
hunger
pertaining
produces
unaware
##imate
combined
conferred
punjabi
radical
##cture
##dly
##icket
wikipedia
##ature
##dication
authorised
depending
indigenous
roof
selling
socialist
amounts
maintaining
prevention
sciences
shrine
sovereignty
##16
##gies
##hold
twain
##charya
##date
##mad
##ong
concerns
consisting
fallen
fonts
hotel
lanka
nerve
succeeded
affection
clipboard
converted
loaded
margin
ministries
responsibilities
thrown
classical
entity
jinns
muscle
ultimately
##abad
##eries
##ingly
payments
protected
repeat
television
##du
##quiring
backward
boat
commodities
listed
shell
translated
whoso
##graph
##iya
handle
keeps
searching
##plication
##rative
##rification
hardware
patients
superior
supposed
angle
equivalent
fears
gram
incident
##dh
##ius
33
bookmark
discuss
financing
fir
meal
nearer
organisms
siva
stamp
##ifying
##py
believer
generate
hundreds
passage
preserve
recipients
##tism
certificates
everywhere
integration
weakness
##ake
##ame
##cated
##hs
aimed
calf
multiply
notified
returning
strengthened
##rect
##rical
##wer
1996
arise
basava
enjoyed
forbid
springs
virtual
##osed
illegal
mohan
sounds
warnings
##scription
conversation
enhanced
farming
fees
fulfil
generated
innocent
overseas
##force
##urse
appeals
associates
disgrace
involves
reaction
recording
savings
##garh
circular
constitute
experiences
obama
performing
##neous
##night
##rine
backend
constituent
entrepreneurs
intention
mailbox
pound
tells
##ash
chand
devi
monitor
proposals
silent
afterwards
implementing
positions
preparing
proceeding
techniques
##17
##ching
##rick
apparent
considering
developments
dynasty
expert
players
supporting
##ivate
##sk
pillars
sand
transportation
##fer
##point
arrive
endeavour
farmer
greek
silence
##ati
##eds
##hara
##ple
##uting
36
newspapers
pick
premises
##ope
bin
carries
collective
emerged
gained
investigation
emotional
refuse
sessions
celebrations
indo
influenced
rapidly
##lead
##minated
##oot
artificial
collect
govt
paste
threw
##ages
##coming
##emption
##iling
##lon
brasero
compassion
entries
familiar
imagination
rendered
stress
##hankar
##how
ascribe
confined
copying
illness
quarter
readers
##lines
audience
collaboration
dangerous
disaster
geographical
native
organism
##els
##val
biggest
competitive
copies
rbi
seize
thick
##are
##oram
aircraft
corresponding
ideals
interaction
programming
reaches
resistance
statistics
##72
##gn
##lew
extract
obviously
organs
saudi
trend
##ently
##gle
##suing
livelihood
##oman
assured
characteristic
congratulate
inflammation
mahal
municipal
nearest
obligation
##logical
blessing
consultation
healthcare
jewish
sanctuary
##bert
buddhist
doth
query
shelter
##down
##hips
##macy
##raft
answers
anyway
attained
distant
primarily
quot
spell
stability
stronger
##hrase
##ila
errors
everybody
inspection
aforesaid
blank
breaking
calculated
electric
flood
grave
invented
vajpayee
##dra
##iles
##mia
cursed
moreover
piety
ruin
##85
##fect
##pers
##ye
exclusive
jacob
outcome
peaceful
prefer
prompt
serving
shop
varieties
##clude
##nda
1997
arm
bigger
honoured
models
##part
##stan
##unch
masters
settle
shade
##itch
agreements
bestow
convinced
devil
exposed
innovations
petroleum
sinful
virtuous
artist
cool
excessive
nose
operate
ring
gates
imports
##most
arrest
batsman
murder
replaced
statutory
tests
##ders
##num
##rc
##rove
expiry
identification
watching
##bia
##ntal
##unction
boiling
circuit
clock
perceive
sender
sharp
tiger
##nk
##ora
##truction
brahman
closing
indicate
lakhs
remembered
residential
washington
achieving
involving
miles
plaintiff
##imation
cutting
glorify
highlight
honourable
ldap
nearby
prevented
supports
1991
attractive
candidates
chennai
derivative
despair
glorious
startup
##using
acceptable
agra
appellate
extensive
genus
visual
newly
##aked
##clining
##pu
##ructural
##ulus
##zi
afford
diamonds
sikh
somewhat
soviet
sucharita
vedas
##sar
unicode
##las
##orous
##ota
bangalore
helpers
historic
motor
surrounded
##nta
##pp
##tude
ages
connections
grade
maturity
mid
radiation
reducing
scattered
chamber
defend
movie
orphans
satellite
thankful
troops
##75
##ug
##ume
accounting
altogether
barrier
chiefs
encoding
fig
slay
stuff
##ues
electrical
grounds
kindness
partial
spreading
wave
witnessed
##gence
##pend
acted
backup
hire
subsidy
addressing
allocation
anywhere
fairly
federal
habit
liberation
punished
ruled
shadow
snake
##chi
##fication
assist
composition
destiny
enquiry
forgotten
institutional
nagar
plane
vitamin
##rise
##rive
##uration
celebrate
freely
harvest
intense
moves
operational
preference
regime
therewith
##iments
##ject
##posed
convocation
easier
inserted
pest
pretty
subsequently
videos
wildlife
##chan
##gradation
##hya
##nds
##tt
doors
ego
smart
##iation
##teenth
catch
chair
dwellers
isn
resulted
sustained
##12
##ander
##duction
##erative
##lu
##wati
##word
dollar
equation
indira
inherit
logic
marine
membership
##xed
birthday
comfort
gazette
intellect
younger
##ital
admission
realized
smooth
unfortunately
##ced
bondmen
colleges
execute
flags
goa
implement
loved
repair
turkish
unlike
##nity
##rist
epic
indicated
lands
pending
precious
regards
render
seal
visiting
##13
##62
##ada
##ground
copyright
examine
exchanges
flying
musical
openly
pregnancy
telugu
##aling
##ney
1950
applies
bacteria
grid
likewise
##dence
##mity
aggregate
dramatic
impression
managing
purify
sanctioned
##af
##oa
48
earliest
prayed
reserved
##lish
##sisted
##take
##ws
allahabad
faster
himalayas
judiciary
##erial
##rium
##vour
decimal
headed
hero
msme
removing
summit
vi
##77
##ux
abnormal
connecting
tribe
usa
##vert
administrator
characteristics
doctors
grievances
magnetic
pen
rao
russian
tourists
##ita
##lin
drew
norms
varied
##ab
##lum
##we
150
1990
brown
empowerment
executed
handling
lowest
mime
planet
reset
vessels
##ave
##ifies
assumed
beloved
bounds
mixture
nodes
ownership
quiet
transparency
triumph
##94
abundant
behavior
beneficial
chemicals
enforcement
ignored
representing
##bilities
##pted
##rait
##took
disorder
resort
visits
wine
##chand
##key
##mission
##rush
arrival
attract
encounter
engage
scholar
suggestions
talent
thereupon
uncle
username
##asa
##dhi
##endra
commodity
delegation
favors
grows
repository
worry
##graphic
##lah
##mp
##rayed
##vance
bought
entrance
expanded
liar
##gi
##if
##pes
belonged
defendant
experienced
isaac
ji
treasure
undertake
##45
##list
##oned
##wait
##xide
furnished
gland
packages
tape
tears
##uming
31st
genetic
keen
occupied
pardon
tested
##ars
##ky
##lands
bahadur
binary
brahmin
gathering
genuine
lists
villagers
##65
##ately
##po
##ulse
bitter
evildoers
exception
experts
exploitation
icons
males
photos
pixels
toggle
token
##kas
##pati
##tated
##thi
##used
academy
advocate
attracted
gujarati
obligations
symbols
##hore
##ood
crowd
extraordinary
kabir
lease
occasions
presently
swift
waves
##marks
##rey
adults
evolved
fed
forgot
goodness
idolaters
nath
netaji
sheikh
thin
thinks
##lore
##otic
abundance
agro
bureau
sorry
tries
##aba
##eous
##ody
##raj
anjuta
estimate
gap
grains
massive
reminded
smoke
stomach
surgery
##enic
##hic
##ika
##ncies
##riya
brahma
exclusively
necessity
realisation
sole
thrust
transform
uk
##eers
##rel
##thy
camp
conventional
focused
monetary
networks
oxygen
prof
strongly
##ending
##uts
applicant
bulk
columns
disobedience
exact
fold
harmful
premium
pursued
##bited
angry
bio
decrease
determines
leg
mineral
##onal
##rence
400
appreciate
blow
generic
horses
injured
tolerance
##19
##84
##iment
##rim
dialogue
divorce
experiment
feared
films
initially
plains
pool
seas
tales
updated
##cise
##culate
##imulation
##olve
##uses
describes
ganges
inevitable
org
patiently
plate
wherewith
##eved
##site
##zone
african
inputs
nanak
retirement
whichever
##81
##rafts
approaches
lion
perish
##wara
1993
agenda
argue
disposal
fun
info
protecting
texts
therefrom
##vara
dates
fix
machines
possibly
random
semi
wonderful
wound
##ception
##gue
##net
##trate
exceeding
guess
liberal
metres
mortal
rejoice
risks
##ches
##pace
##rogen
##tric
duly
durga
lahore
mm
partly
routine
widget
##ex
##iction
##inate
appreciation
encouraging
flame
lecture
magistrate
microsoft
nervous
pace
pdf
reverse
upgrade
##une
##wide
attempts
bay
complaints
foods
gnu
increasingly
laden
paths
referring
reposted
surprise
upright
william
##eb
##hetic
42
alms
awaits
crucial
definite
fortune
pursue
smt
winning
##olving
##siding
acquire
blown
matches
obtaining
pregnant
reflected
spades
testify
utility
##78
##bc
##bition
##mail
##nounced
##urable
recognise
unexpected
##ect
##icides
##tics
adoption
aged
continuing
handed
interval
quoted
##lity
##mist
##nating
##tent
aids
assume
fertilizers
generous
iranian
peak
##dd
##itative
##owed
##roduce
##ught
bharati
discovery
generating
la
protein
rid
##ference
##kes
##ru
##verted
attacked
badruddin
breeding
enabling
evaluation
finger
orientation
symbolic
##jee
##umour
advise
approximately
correctly
formula
frequency
merit
plenty
rely
stem
##ager
##lip
##mes
##mit
##rious
allied
bearer
borne
hopes
incomplete
locally
secretly
##10
##ains
##ament
##ena
##itation
##oes
##rage
ah
chest
debug
dividend
incentives
listening
singing
undoubtedly
##citing
##hari
##oth
##rected
##zen
1989
accommodation
engagement
forefathers
garments
ka
lotus
ports
pune
themes
##do
##ign
##lacing
1995
abdul
coffee
confirm
criminals
haryana
lending
secular
segment
stick
ward
##icated
65
calm
graduate
overwrite
passion
posts
##52
##race
##ras
##rry
##tri
himalayan
meanwhile
patterns
requests
scroll
setup
vehicles
##35
##51
##82
##gp
##ives
##rier
doubts
imprisonment
ip
noticed
restored
##ogue
##ptive
##sor
##spect
##stone
bhutan
controls
denial
emerge
indicates
instant
islamists
licence
trace
xml
##acy
##fi
##iting
##ppy
##shan
##vel
1000
accepts
actively
beat
funding
genius
minority
obedience
ours
remind
writes
##pg
begun
ma
occupation
serial
situations
##22
##eval
##jit
##lle
##quisite
acute
aspirations
bid
necessarily
reserves
transparent
##tend
##ternity
34
airports
holder
imperialism
lucknow
mechanical
nigh
spending
supplied
terrorists
##believing
##loom
##ratitude
cat
incoming
notifications
painting
singles
tend
##bus
##ledged
ca
capabilities
confirming
creature
essence
mining
originally
paragraph
retain
shame
targets
##have
##mar
##nging
##ulous
accepting
canada
defeated
eleven
experiments
mud
prosecution
tank
wheel
##39
##ifier
brave
elsewhere
governing
travelled
whereof
##igate
##ories
##paid
##rm
1988
arbitration
colours
occurrence
paul
preceding
resolved
rocks
separation
slightly
ssl
substitute
##40
##archy
##spread
##versity
allies
cometh
communist
establishing
legacy
lesser
liberty
moderate
owners
puts
restart
wider
wont
##ove
##ployment
##yal
adds
bihari
checked
exposure
gallery
jute
skilled
##63
##piration
##tte
agents
americans
ancients
befall
church
likeness
obedient
simultaneously
succession
tail
taj
tenant
unlawful
##bits
##bu
##dder
##had
##lied
##tration
##ued
feels
infidels
rebellious
restrictions
rows
seriously
striving
withdraw
##erous
##fare
##rk
##uspicious
discover
enhancing
enjoined
memorial
seventy
absolutely
advances
breath
complicated
diabetes
disciples
divinity
enormous
exceeds
governorate
inclusion
mix
ornaments
perspective
receipts
regulatory
rotation
##card
##fined
##missible
##orned
##rix
certification
contracts
filename
recruitment
speaks
tied
worshipping
##gic
##hai
##tu
51
bath
disabilities
earthquake
festivals
lots
righteously
stable
##32
##borate
##dha
##ects
##quest
arises
cooking
guest
guests
particulars
proclamation
ritual
##ao
##cessor
##lm
##pired
##posing
##rises
advisory
bamboo
dwellings
fails
governors
previously
revised
roll
separately
slain
utmost
##64
##67
##fulness
##has
##urious
affliction
balanced
beware
calamity
capture
comparison
dam
disability
engineers
explains
fullscreen
personally
sample
subordinate
##66
##ald
##arh
##ith
##pense
55
designs
empathy
mad
penis
popup
provincial
publishing
pull
urgent
##bor
##cient
##eving
##uries
examined
excuse
intensity
mirror
shot
virus
##bour
##icing
##rial
##ules
acquainted
developmental
dies
emails
inheritance
inspire
receives
surrounding
tobacco
tone
##crypt
##ioned
##long
compulsory
coordinate
crown
disputed
eighth
heights
imap
push
rupee
specifically
stores
suggestion
super
utterly
##ass
##hes
##scribe
concentration
goodly
invitation
logical
plastic
privileges
promises
provider
python
sympathy
textiles
trusted
victims
##ipped
##titude
##utrition
afflicted
cultures
encrypted
formulation
furnish
productive
relatively
sing
youtube
##55
##izes
##lier
##oe
##olent
1987
boards
lightning
paddy
residents
sahib
talks
thereon
##31
##58
##ads
##log
##lying
##mous
##rio
##ulture
ayat
conveyed
conviction
headquarters
outward
praises
prem
rebellion
relate
seventh
##cision
##olved
##pended
abiding
federation
gospel
laboratory
satisfy
sport
##ively
##olution
##san
##stry
##uni
confirmation
fulfill
nights
prisoners
rainfall
trumpet
vimana
##nies
##own
bhagat
crude
dress
ict
malayalam
modification
patel
producers
publish
recover
streets
transmitted
##42
##ended
##ills
abdullah
ayurveda
borders
declined
dedication
disobey
documentation
palestine
ransom
reporting
restricted
secrets
sikkim
sync
viceroy
withdrawal
##tter
##ually
##utch
##vable
bhai
intercourse
involvement
pan
rating
shoulder
utilised
##11
##57
##ford
##gned
##hur
##losure
##olio
##ster
anybody
arrow
authors
bounties
incidents
secretariat
tooth
travelling
44
barren
batch
laugh
nokia
shipping
slope
swaraj
##hesis
##iring
##mated
##pensive
##roup
##vana
##vision
1957
define
edited
elephants
endure
nevertheless
nursing
postal
rear
rehabilitation
reservation
score
tiny
tribute
##cities
##pet
##ridge
##tract
##ulses
##ulum
##uminous
##unting
47
adjustment
beliefs
bits
buffer
buttons
cure
devils
dollars
jain
locations
rani
rendering
retrieve
##34
##gon
##gration
##ths
confusion
consolidated
crash
demanded
entrepreneurship
threatened
##cles
##inated
##jay
boundary
dwarkanath
filing
grammar
indus
muscles
notify
portal
retired
##ential
##nis
##pping
##ror
##tions
##uated
1976
bag
functional
jerusalem
manipur
mood
moosa
patent
perception
pro
profound
sindhi
tissues
##83
##sable
classification
jihad
max
nationalism
proviso
purified
shortcut
stakeholders
##dge
##itya
##iv
##liance
afternoon
alignment
arabia
club
factories
java
kids
resting
underneath
##ace
##eology
##rishna
##trated
colonial
coloured
coverage
descend
discrimination
monsoon
philosophical
##38
##69
##bles
##due
##rising
##visible
atal
biological
collecting
credits
discard
endowed
flows
forming
hind
losses
reload
tenth
wake
##ec
##leasing
##lers
##tus
37
aurobindo
basically
bread
horticulture
rewarded
uniform
yojana
##ek
##gnation
##lisation
##nar
##try
cluster
discourse
enters
incorporated
prosper
rabindranath
scientist
##dies
##iest
##nary
##otent
##ound
##putation
##rg
belie
deeper
footsteps
habits
parse
pursuit
ruined
##aha
##ball
##factory
##fected
##ocal
##parable
38
affects
depreciation
fraction
helpful
intimate
pagans
pleasant
rescue
thereto
##21
##ght
##herent
##ordination
##script
##shing
bore
candidate
compact
compliance
comprising
directorate
excise
heedless
highway
hole
intercession
lam
levied
meters
visitors
##bhai
##lization
##natha
##oration
##range
alif
canceled
coastal
desist
electoral
expertise
membrane
rope
##cation
##cency
##while
##with
1980
clothing
dairy
earning
enacted
idle
phenomenon
studying
tar
##all
##cessors
##dding
##gy
##iating
##rapped
criteria
driving
entertainment
graphics
grievance
riches
vary
verified
whereon
##54
##ase
##cca
##eather
##esh
##grate
##nsions
##ocation
##oli
##pass
##tail
assign
brethren
devotees
merge
ought
picked
##acial
##board
##eering
##iliated
##iterate
##lict
##more
##onest
##ony
##serving
##sibility
1971
advantages
associations
bal
disobedient
inquiry
measured
nationalist
nice
oldest
radhakrishnan
shakti
shut
unjustly
verify
##certain
##cline
##hone
##nial
##rar
##ust
determining
frequent
hearer
humility
minerals
mouths
ok
palms
possessions
valuation
victim
##avan
##iously
##olence
census
dpi
intensive
manpower
mathematics
rai
substances
wash
##asts
##che
##harma
##press
##tention
##ulator
##urya
##ी
1974
amended
apparently
autonomous
economies
magazine
marble
miracles
processed
repayment
surgical
##aching
##alat
##lly
##ollen
buying
drought
enthusiasm
gulf
inspector
mandatory
medicinal
medicines
panchayat
physics
updates
##ick
##ids
##khand
##mic
##plies
##yam
99
conflicts
curve
deficiency
goodwill
intelligent
purchased
revert
secured
serves
supramental
##24
##ew
##motion
##urs
64
blocks
clauses
concrete
greatness
makers
misfortune
parable
reception
wretched
##gus
##lant
##oster
##rained
bomb
capability
commonwealth
confirmed
extends
passes
rail
sc
##dating
##erable
##gent
##olar
##ort
##ou
##raja
##retion
##uran
avoided
designated
extending
mim
observation
voting
##28
##33
##eve
##for
##hram
##mate
##ows
##uction
##ware
85
abuse
armies
averse
aviation
brand
construct
honor
jubilee
linkages
mutually
palestinians
publications
relates
##av
##ava
##mn
##olation
##rmal
##rted
600
azad
continent
earnings
framed
menon
producer
striking
taxation
veda
viewer
volumes
##cking
##mond
##pation
##ret
##riti
##utation
39
colleagues
continuously
crossing
pause
satyagraha
sickness
teachings
void
##ays
##car
##cp
##gling
##pad
alliance
befalls
conducting
creed
dominant
enjoin
guardians
shareholders
supplies
tabs
##bo
##licity
##lling
##umps
allotted
confused
connectivity
consist
cvs
differed
filters
flash
inflation
meanings
mistakes
nodal
vouchsafed
zones
##acket
##ards
##cluding
##gos
##hat
##lee
##uality
##yers
cavity
corrupt
equitable
favourite
manilal
preserved
qualified
rarely
servers
survive
tracks
##gance
##nciliation
##racy
accomplished
ark
computed
condemned
countrymen
deleting
enmity
omitted
passengers
rooms
typical
##iant
##ises
##racing
artists
breach
brilliant
canal
deer
iblis
recovered
stretch
tendency
tongues
##36
##amuna
##lified
##place
##urbed
##utt
adverse
concluded
cows
disclose
divisions
forged
haven
immovable
khadi
ladies
miss
mortgage
oceans
proceeds
transformed
wooden
##ancies
##iah
##plied
1946
abandoned
describing
floating
insight
justified
mines
mw
neglected
pilot
scholarship
sikhs
##79
##itarian
##lis
##oles
##quent
##rch
##uard
15th
andaman
buddhism
debugger
humiliating
inmates
ki
lays
lofty
shops
##iar
##iss
##lord
##mat
##rally
##uth
1973
assurance
attachments
editing
medal
refresh
##gression
##iliation
##llies
##mons
##mpressed
##oy
##pire
##ressed
##rint
asutosh
ban
blast
coins
immortal
owing
refund
socialism
storm
tags
tall
tons
##born
##dir
##ickets
##kin
##orms
##rance
250
centers
coin
embedded
indra
neglect
powder
presidency
professionals
sponsored
tilak
upset
wars
##37
##atra
##east
##gia
##metry
##riage
##rich
##sted
allowing
battery
charitable
chart
critics
inaugurated
indirect
limitations
patna
strict
withdrawn
##arity
##ef
##lous
##nance
##riction
##tect
##ा
accord
album
conspiracy
county
empowered
laboratories
loving
optional
recipient
threshold
translator
##aland
##field
##reak
##sible
##sman
##smic
52
anxious
cautious
consistent
detected
finish
globe
nios
rests
ride
ups
vegetation
wrongdoing
##ines
##mens
##nesia
##plement
##run
##runk
##suance
##tting
1970
1986
biotechnology
endeavours
honey
paintings
prevailing
rains
scales
suggests
timely
weekly
##ead
##ices
##osity
##scribed
argued
assessed
borrower
commencing
hamas
narayan
passwords
prohibited
protest
ranges
saints
sealed
subtle
##ancing
##ax
##bul
##dic
##era
##father
##ficial
##ganda
##hra
##mohan
##nunciation
##ply
##stical
43
brotherhood
elder
fax
genes
kannada
offences
romantic
sovereign
weapon
writable
##ints
##orial
##read
##rics
##rieving
##sant
8859
captured
dumb
fiscal
fulfilment
liver
mango
nominated
providers
shaitan
somewhere
##cience
##dent
##kash
##mium
##ously
brahmins
brightness
ceiling
guiding
kanpur
navy
pressing
purely
quote
reveals
signing
##ague
##ames
##anning
##igh
##inant
##pical
##rit
##thical
1949
46
adjust
amidst
apex
bhakti
blazing
deceive
dna
fasting
gifts
importing
reputation
sperm
swelling
##clined
##dhu
##ico
##nceived
##ntly
##opher
##rowing
##tine
##ulates
##vention
2nd
almast
apple
attributes
councils
europeans
gender
laughter
leaflet
livestock
oriya
orphan
reliable
transgress
undo
vested
##ender
##hmi
##itous
##lement
##ssed
##tling
absent
alcohol
bent
breaks
burnt
cement
exhibition
graves
kidney
opinions
paris
pour
quantities
revolt
rough
sanitation
smoking
talked
transition
wearing
##erer
##mile
##oys
##ptic
##ssel
##sume
##uta
abstract
copper
gehenna
hanuman
inaugurate
nest
significantly
thoroughly
##dom
##ented
##ifications
##lash
##sagar
##text
enduring
everyday
hostile
impose
inferior
lolita
storing
walked
wet
##dam
##mbling
##mented
##nerable
##nged
##nvenience
##oping
##pear
##sumption
##tf
##type
##wali
41
artistic
existed
intervention
lectures
likes
orthodox
regret
successors
##ount
##sure
##thm
##uch
coconut
dharma
involve
liabilities
psychological
##29
##aly
##art
##iety
##linga
founder
latin
lover
minded
miracle
narrative
necks
os
particles
singapore
slip
steady
unbelief
wombs
##aza
##ducing
##hia
##hor
##ller
##pices
##rading
cinema
compound
crossed
deprived
deserve
expanding
gdp
husbands
praised
renewable
samaj
textile
throat
##50
##68
##min
##ncing
##oor
##rst
attraction
burst
consequently
controller
controversy
deaths
definitely
edition
fetch
gentle
instances
kittur
mysore
negotiations
prevail
tends
tired
##bours
##bute
##hael
##oc
##ones
##ribute
##rons
##uma
##ushed
amendments
browse
controlling
corporations
deposited
disobeyed
favoured
holiday
invested
mapi
mrs
publicity
rotate
tract
warming
widow
##arma
##buting
##dum
##held
##hpur
##itant
##nouncement
##oss
##poser
##ributing
##ripura
##ructed
##ultivated
arunachal
asunder
characterized
credited
density
measurement
serpent
writ
##alt
##dicating
##dya
##eping
##etus
##kal
##marked
##notes
##oting
##tles
19th
abandon
concepts
dreadful
lights
ordinance
patch
prevalent
rubber
unsupported
visitor
##bat
##dual
##kananda
##laming
##motions
##off
##tta
abu
alleged
camels
economics
governmental
poultry
prosperous
sleeping
sphere
suppose
telecom
##ceded
##cript
##matical
##obar
##opathy
##rass
##ronic
alpha
asks
atom
babies
conception
considerably
debts
delta
diff
gui
nuh
passenger
permits
staying
wireless
##bin
##corated
##inth
##lexible
##sc
##tering
##water
classified
fancy
hiv
invest
judged
mechanisms
relationships
respects
retreat
shu
tragedy
worried
##ables
##ctum
##eological
##ola
##pondence
##verned
applying
awe
breathing
captain
chhattisgarh
cm
committing
compromise
departure
exercised
forbearing
foremost
kitchen
libraries
lift
mauritius
proceeded
shirt
surprised
##!
##"
###
##$
##%
##&
##'
##(
##)
##*
##+
##,
##-
##.
##/
##:
##;
##<
##=
##>
##?
##@
##[
##\
##]
##^
##_
##`
##{
##|
##}
##~
##¡
##£
##¤
##§
##©
##«
##¬
##®
##°
##±
##·
##»
##×
##æ
##ð
##÷
##ø
##đ
##ı
##ł
##ǁ
##ə
##ʿ
##α
##β
##γ
##δ
##ε
##ζ
##η
##θ
##ι
##κ
##λ
##μ
##ν
##ο
##π
##ρ
##σ
##τ
##φ
##ω
##а
##в
##д
##е
##и
##н
##о
##п
##р
##ч
##ү
##ا
##ة
##ت
##ح
##د
##ر
##س
##ك
##ل
##م
##و
##ي
##ः
##अ
##आ
##इ
##ई
##उ
##ऊ
##ऋ
##ऍ
##ए
##ऐ
##ऑ
##ऒ
##ओ
##औ
##क
##ख
##ग
##घ
##च
##छ
##ज
##झ
##ञ
##ट
##ठ
##ड
##ण
##त
##थ
##द
##ध
##न
##प
##फ
##ब
##भ
##म
##य
##र
##ल
##व
##श
##ष
##स
##ह
##ि
##ॉ
##ो
##ौ
##।
##०
##१
##२
##३
##४
##५
##६
##७
##८
##९
##॰
##চ
##দ
##ন
##ব
##ভ
##র
##ষ
##স
##া
##ᄍ
##ᅢ
##‐
##–
##—
##―
##‘
##’
##“
##”
##„
##†
##•
## 
##‰
##′
##⁄
##€
##₹
##←
##→
##−
##∕
##√
##∞
##∣
##∨
##∶
##≤
##≥
##⋯
##⌈
##⌉
##⌊
##⌋
##⌘
##─
##☺
##☻
##♪
##♫
##➣
##か
##な
##不
##付
##傭
##妖
##字
##容
##庸
##悠
##憂
##揺
##擁
##曜
##有
##様
##洋
##溶
##漢
##熔
##用
##由
##病
##続
##羊
##耀
##葉
##要
##謡
##遥
##預
##
##�
